#include "magic_wand_model_data.h"


// We need to keep the data array aligned on some architectures.

#ifdef __has_attribute

#define HAVE_ATTRIBUTE(x) __has_attribute(x)

#else

#define HAVE_ATTRIBUTE(x) 0

#endif

#if HAVE_ATTRIBUTE(aligned) || (defined(__GNUC__) && !defined(__clang__))

#define DATA_ALIGN_ATTRIBUTE __attribute__((aligned(4)))

#else

#define DATA_ALIGN_ATTRIBUTE

#endif


const unsigned char g_magic_wand_model_data[] DATA_ALIGN_ATTRIBUTE = {

  0x08, 0x00, 0x00, 0x00, 0x54, 0x46, 0x4c, 0x33, 0x62, 0xff, 0xff, 0xff,
  0x03, 0x00, 0x00, 0x00, 0x10, 0x00, 0x00, 0x00, 0x24, 0x00, 0x00, 0x00,
  0x78, 0x00, 0x00, 0x00, 0x24, 0x00, 0x00, 0x00, 0x05, 0x00, 0x00, 0x00,
  0x78, 0x05, 0x00, 0x00, 0xb0, 0x04, 0x00, 0x00, 0xe0, 0x02, 0x00, 0x00,
  0x60, 0x02, 0x00, 0x00, 0x54, 0x01, 0x00, 0x00, 0x01, 0x00, 0x00, 0x00,
  0x78, 0x00, 0x00, 0x00, 0x13, 0x00, 0x00, 0x00, 0x18, 0x30, 0x00, 0x00,
  0x14, 0x30, 0x00, 0x00, 0x20, 0x2f, 0x00, 0x00, 0xa8, 0x2e, 0x00, 0x00,
  0x3c, 0x2e, 0x00, 0x00, 0xec, 0x11, 0x00, 0x00, 0x98, 0x10, 0x00, 0x00,
  0xbc, 0x0e, 0x00, 0x00, 0x60, 0x06, 0x00, 0x00, 0xfc, 0x05, 0x00, 0x00,
  0x78, 0x05, 0x00, 0x00, 0xec, 0x2f, 0x00, 0x00, 0xe8, 0x2f, 0x00, 0x00,
  0xe4, 0x2f, 0x00, 0x00, 0xe0, 0x2f, 0x00, 0x00, 0xdc, 0x2f, 0x00, 0x00,
  0xd8, 0x2f, 0x00, 0x00, 0xd4, 0x2f, 0x00, 0x00, 0xd0, 0x2f, 0x00, 0x00,
  0x0f, 0x00, 0x00, 0x00, 0x4d, 0x4c, 0x49, 0x52, 0x20, 0x43, 0x6f, 0x6e,
  0x76, 0x65, 0x72, 0x74, 0x65, 0x64, 0x2e, 0x00, 0x00, 0x00, 0x0e, 0x00,
  0x18, 0x00, 0x04, 0x00, 0x08, 0x00, 0x0c, 0x00, 0x10, 0x00, 0x14, 0x00,
  0x0e, 0x00, 0x00, 0x00, 0x14, 0x00, 0x00, 0x00, 0x5c, 0x00, 0x00, 0x00,
  0x60, 0x00, 0x00, 0x00, 0x64, 0x00, 0x00, 0x00, 0x84, 0x00, 0x00, 0x00,
  0x12, 0x00, 0x00, 0x00, 0x48, 0x2f, 0x00, 0x00, 0xe4, 0x2e, 0x00, 0x00,
  0x3c, 0x2e, 0x00, 0x00, 0xd8, 0x2d, 0x00, 0x00, 0x70, 0x2d, 0x00, 0x00,
  0x1c, 0x11, 0x00, 0x00, 0xc0, 0x0f, 0x00, 0x00, 0xe4, 0x0d, 0x00, 0x00,
  0xa0, 0x05, 0x00, 0x00, 0x3c, 0x05, 0x00, 0x00, 0xb0, 0x04, 0x00, 0x00,
  0xe8, 0x03, 0x00, 0x00, 0x38, 0x03, 0x00, 0x00, 0xa4, 0x02, 0x00, 0x00,
  0x10, 0x02, 0x00, 0x00, 0x90, 0x01, 0x00, 0x00, 0xfc, 0x00, 0x00, 0x00,
  0x80, 0x00, 0x00, 0x00, 0x01, 0x00, 0x00, 0x00, 0x00, 0x00, 0x00, 0x00,
  0x01, 0x00, 0x00, 0x00, 0x11, 0x00, 0x00, 0x00, 0x08, 0x00, 0x00, 0x00,
  0x1c, 0x04, 0x00, 0x00, 0x58, 0x03, 0x00, 0x00, 0xc8, 0x02, 0x00, 0x00,
  0x24, 0x02, 0x00, 0x00, 0xac, 0x01, 0x00, 0x00, 0x10, 0x01, 0x00, 0x00,
  0x94, 0x00, 0x00, 0x00, 0x10, 0x00, 0x00, 0x00, 0x04, 0x00, 0x00, 0x00,
  0x6d, 0x61, 0x69, 0x6e, 0x00, 0x00, 0x00, 0x00, 0x8e, 0xff, 0xff, 0xff,
  0x00, 0x00, 0x00, 0x09, 0x04, 0x00, 0x00, 0x00, 0x1c, 0x00, 0x00, 0x00,
  0x10, 0x00, 0x00, 0x00, 0x04, 0x00, 0x00, 0x00, 0x0a, 0xd2, 0xff, 0xff,
  0x00, 0x00, 0x80, 0x3f, 0x01, 0x00, 0x00, 0x00, 0x11, 0x00, 0x00, 0x00,
  0x01, 0x00, 0x00, 0x00, 0x10, 0x00, 0x00, 0x00, 0xf6, 0xfb, 0xff, 0xff,
  0x00, 0x00, 0x00, 0x19, 0x01, 0x00, 0x00, 0x00, 0x8a, 0xd1, 0xff, 0xff,
  0x10, 0x00, 0x00, 0x00, 0x12, 0x00, 0x00, 0x00, 0x14, 0x00, 0x00, 0x00,
  0x20, 0x00, 0x00, 0x00, 0x02, 0x00, 0x00, 0x00, 0x01, 0x00, 0x00, 0x00,
  0x04, 0x00, 0x00, 0x00, 0x08, 0x00, 0x00, 0x00, 0x49, 0x64, 0x65, 0x6e,
  0x74, 0x69, 0x74, 0x79, 0x00, 0x00, 0x00, 0x00, 0xc4, 0xd1, 0xff, 0xff,
  0x00, 0x00, 0x0e, 0x00, 0x18, 0x00, 0x08, 0x00, 0x0c, 0x00, 0x10, 0x00,
  0x07, 0x00, 0x14, 0x00, 0x0e, 0x00, 0x00, 0x00, 0x00, 0x00, 0x00, 0x08,
  0x03, 0x00, 0x00, 0x00, 0x18, 0x00, 0x00, 0x00, 0x0c, 0x00, 0x00, 0x00,
  0x04, 0x00, 0x00, 0x00, 0x98, 0xd1, 0xff, 0xff, 0x01, 0x00, 0x00, 0x00,
  0x10, 0x00, 0x00, 0x00, 0x03, 0x00, 0x00, 0x00, 0x0f, 0x00, 0x00, 0x00,
  0x05, 0x00, 0x00, 0x00, 0x02, 0x00, 0x00, 0x00, 0x02, 0xd2, 0xff, 0xff,
  0x10, 0x00, 0x00, 0x00, 0x11, 0x00, 0x00, 0x00, 0x14, 0x00, 0x00, 0x00,
  0x30, 0x00, 0x00, 0x00, 0x02, 0x00, 0x00, 0x00, 0x01, 0x00, 0x00, 0x00,
  0x04, 0x00, 0x00, 0x00, 0x1a, 0x00, 0x00, 0x00, 0x73, 0x65, 0x71, 0x75,
  0x65, 0x6e, 0x74, 0x69, 0x61, 0x6c, 0x2f, 0x64, 0x65, 0x6e, 0x73, 0x65,
  0x5f, 0x31, 0x2f, 0x42, 0x69, 0x61, 0x73, 0x41, 0x64, 0x64, 0x00, 0x00,
  0xf4, 0xd1, 0xff, 0xff, 0xd6, 0xfd, 0xff, 0xff, 0x00, 0x00, 0x00, 0x08,
  0x03, 0x00, 0x00, 0x00, 0x24, 0x00, 0x00, 0x00, 0x18, 0x00, 0x00, 0x00,
  0x0c, 0x00, 0x00, 0x00, 0x00, 0x00, 0x06, 0x00, 0x08, 0x00, 0x07, 0x00,
  0x06, 0x00, 0x00, 0x00, 0x00, 0x00, 0x00, 0x01, 0x01, 0x00, 0x00, 0x00,
  0x0f, 0x00, 0x00, 0x00, 0x03, 0x00, 0x00, 0x00, 0x0e, 0x00, 0x00, 0x00,
  0x04, 0x00, 0x00, 0x00, 0x01, 0x00, 0x00, 0x00, 0xfe, 0xfc, 0xff, 0xff,
  0x00, 0x00, 0x00, 0x09, 0x01, 0x00, 0x00, 0x00, 0x92, 0xd2, 0xff, 0xff,
  0x10, 0x00, 0x00, 0x00, 0x10, 0x00, 0x00, 0x00, 0x14, 0x00, 0x00, 0x00,
  0x2c, 0x00, 0x00, 0x00, 0x02, 0x00, 0x00, 0x00, 0x01, 0x00, 0x00, 0x00,
  0x10, 0x00, 0x00, 0x00, 0x15, 0x00, 0x00, 0x00, 0x73, 0x65, 0x71, 0x75,
  0x65, 0x6e, 0x74, 0x69, 0x61, 0x6c, 0x2f, 0x64, 0x65, 0x6e, 0x73, 0x65,
  0x2f, 0x52, 0x65, 0x6c, 0x75, 0x00, 0x00, 0x00, 0xd8, 0xd2, 0xff, 0xff,
  0x00, 0x00, 0x0a, 0x00, 0x10, 0x00, 0x04, 0x00, 0x08, 0x00, 0x0c, 0x00,
  0x0a, 0x00, 0x00, 0x00, 0x02, 0x00, 0x00, 0x00, 0x10, 0x00, 0x00, 0x00,
  0x04, 0x00, 0x00, 0x00, 0x01, 0x00, 0x00, 0x00, 0x0e, 0x00, 0x00, 0x00,
  0x02, 0x00, 0x00, 0x00, 0x0d, 0x00, 0x00, 0x00, 0x03, 0x00, 0x00, 0x00,
  0x7a, 0xfd, 0xff, 0xff, 0x00, 0x00, 0x00, 0x16, 0x01, 0x00, 0x00, 0x00,
  0x0e, 0xd3, 0xff, 0xff, 0x10, 0x00, 0x00, 0x00, 0x0f, 0x00, 0x00, 0x00,
  0x14, 0x00, 0x00, 0x00, 0x30, 0x00, 0x00, 0x00, 0x02, 0x00, 0x00, 0x00,
  0x01, 0x00, 0x00, 0x00, 0x70, 0x00, 0x00, 0x00, 0x1a, 0x00, 0x00, 0x00,
  0x73, 0x65, 0x71, 0x75, 0x65, 0x6e, 0x74, 0x69, 0x61, 0x6c, 0x2f, 0x66,
  0x6c, 0x61, 0x74, 0x74, 0x65, 0x6e, 0x2f, 0x52, 0x65, 0x73, 0x68, 0x61,
  0x70, 0x65, 0x00, 0x00, 0x00, 0xd3, 0xff, 0xff, 0xe2, 0xfe, 0xff, 0xff,
  0x00, 0x00, 0x00, 0x05, 0x01, 0x00, 0x00, 0x00, 0x38, 0x00, 0x00, 0x00,
  0x2c, 0x00, 0x00, 0x00, 0x14, 0x00, 0x00, 0x00, 0x00, 0x00, 0x0e, 0x00,
  0x14, 0x00, 0x00, 0x00, 0x10, 0x00, 0x0c, 0x00, 0x08, 0x00, 0x04, 0x00,
  0x0e, 0x00, 0x00, 0x00, 0x03, 0x00, 0x00, 0x00, 0x01, 0x00, 0x00, 0x00,
  0x03, 0x00, 0x00, 0x00, 0x01, 0x00, 0x00, 0x00, 0x01, 0x00, 0x00, 0x00,
  0x0d, 0x00, 0x00, 0x00, 0x01, 0x00, 0x00, 0x00, 0x0c, 0x00, 0x00, 0x00,
  0x9e, 0xd3, 0xff, 0xff, 0x10, 0x00, 0x00, 0x00, 0x0e, 0x00, 0x00, 0x00,
  0x1c, 0x00, 0x00, 0x00, 0x40, 0x00, 0x00, 0x00, 0x04, 0x00, 0x00, 0x00,
  0x01, 0x00, 0x00, 0x00, 0x07, 0x00, 0x00, 0x00, 0x01, 0x00, 0x00, 0x00,
  0x10, 0x00, 0x00, 0x00, 0x22, 0x00, 0x00, 0x00, 0x73, 0x65, 0x71, 0x75,
  0x65, 0x6e, 0x74, 0x69, 0x61, 0x6c, 0x2f, 0x6d, 0x61, 0x78, 0x5f, 0x70,
  0x6f, 0x6f, 0x6c, 0x69, 0x6e, 0x67, 0x32, 0x64, 0x5f, 0x31, 0x2f, 0x4d,
  0x61, 0x78, 0x50, 0x6f, 0x6f, 0x6c, 0x00, 0x00, 0xa0, 0xd3, 0xff, 0xff,
  0xc2, 0xfe, 0xff, 0xff, 0x00, 0x00, 0x00, 0x01, 0x24, 0x00, 0x00, 0x00,
  0x18, 0x00, 0x00, 0x00, 0x04, 0x00, 0x00, 0x00, 0xb4, 0xfe, 0xff, 0xff,
  0x01, 0x00, 0x00, 0x00, 0x01, 0x00, 0x00, 0x00, 0x00, 0x00, 0x00, 0x01,
  0x01, 0x00, 0x00, 0x00, 0x0c, 0x00, 0x00, 0x00, 0x03, 0x00, 0x00, 0x00,
  0x0b, 0x00, 0x00, 0x00, 0x07, 0x00, 0x00, 0x00, 0x09, 0x00, 0x00, 0x00,
  0x2e, 0xd4, 0xff, 0xff, 0x10, 0x00, 0x00, 0x00, 0x0d, 0x00, 0x00, 0x00,
  0x1c, 0x00, 0x00, 0x00, 0x2c, 0x00, 0x00, 0x00, 0x04, 0x00, 0x00, 0x00,
  0x01, 0x00, 0x00, 0x00, 0x15, 0x00, 0x00, 0x00, 0x01, 0x00, 0x00, 0x00,
  0x10, 0x00, 0x00, 0x00, 0x0c, 0x00, 0x00, 0x00, 0x74, 0x66, 0x6c, 0x2e,
  0x63, 0x6f, 0x6e, 0x76, 0x5f, 0x32, 0x64, 0x31, 0x00, 0x00, 0x00, 0x00,
  0x74, 0xd4, 0xff, 0xff, 0x00, 0x00, 0x0e, 0x00, 0x1a, 0x00, 0x08, 0x00,
  0x0c, 0x00, 0x10, 0x00, 0x07, 0x00, 0x14, 0x00, 0x0e, 0x00, 0x00, 0x00,
  0x00, 0x00, 0x00, 0x05, 0x01, 0x00, 0x00, 0x00, 0x3c, 0x00, 0x00, 0x00,
  0x30, 0x00, 0x00, 0x00, 0x14, 0x00, 0x00, 0x00, 0x00, 0x00, 0x0e, 0x00,
  0x18, 0x00, 0x17, 0x00, 0x10, 0x00, 0x0c, 0x00, 0x08, 0x00, 0x04, 0x00,
  0x0e, 0x00, 0x00, 0x00, 0x03, 0x00, 0x00, 0x00, 0x03, 0x00, 0x00, 0x00,
  0x03, 0x00, 0x00, 0x00, 0x03, 0x00, 0x00, 0x00, 0x00, 0x00, 0x00, 0x01,
  0x01, 0x00, 0x00, 0x00, 0x0b, 0x00, 0x00, 0x00, 0x01, 0x00, 0x00, 0x00,
  0x0a, 0x00, 0x00, 0x00, 0x46, 0xff, 0xff, 0xff, 0x00, 0x00, 0x00, 0x11,
  0x01, 0x00, 0x00, 0x00, 0xda, 0xd4, 0xff, 0xff, 0x10, 0x00, 0x00, 0x00,
  0x0c, 0x00, 0x00, 0x00, 0x1c, 0x00, 0x00, 0x00, 0x40, 0x00, 0x00, 0x00,
  0x04, 0x00, 0x00, 0x00, 0x01, 0x00, 0x00, 0x00, 0x15, 0x00, 0x00, 0x00,
  0x01, 0x00, 0x00, 0x00, 0x08, 0x00, 0x00, 0x00, 0x20, 0x00, 0x00, 0x00,
  0x73, 0x65, 0x71, 0x75, 0x65, 0x6e, 0x74, 0x69, 0x61, 0x6c, 0x2f, 0x6d,
  0x61, 0x78, 0x5f, 0x70, 0x6f, 0x6f, 0x6c, 0x69, 0x6e, 0x67, 0x32, 0x64,
  0x2f, 0x4d, 0x61, 0x78, 0x50, 0x6f, 0x6f, 0x6c, 0x00, 0x00, 0x00, 0x00,
  0x34, 0xd5, 0xff, 0xff, 0x00, 0x00, 0x0e, 0x00, 0x14, 0x00, 0x00, 0x00,
  0x08, 0x00, 0x0c, 0x00, 0x07, 0x00, 0x10, 0x00, 0x0e, 0x00, 0x00, 0x00,
  0x00, 0x00, 0x00, 0x01, 0x30, 0x00, 0x00, 0x00, 0x24, 0x00, 0x00, 0x00,
  0x10, 0x00, 0x00, 0x00, 0x0c, 0x00, 0x10, 0x00, 0x00, 0x00, 0x04, 0x00,
  0x08, 0x00, 0x0f, 0x00, 0x0c, 0x00, 0x00, 0x00, 0x01, 0x00, 0x00, 0x00,
  0x01, 0x00, 0x00, 0x00, 0x00, 0x00, 0x00, 0x01, 0x01, 0x00, 0x00, 0x00,
  0x0a, 0x00, 0x00, 0x00, 0x03, 0x00, 0x00, 0x00, 0x00, 0x00, 0x00, 0x00,
  0x06, 0x00, 0x00, 0x00, 0x08, 0x00, 0x00, 0x00, 0x00, 0x00, 0x0a, 0x00,
  0x0c, 0x00, 0x07, 0x00, 0x00, 0x00, 0x08, 0x00, 0x0a, 0x00, 0x00, 0x00,
  0x00, 0x00, 0x00, 0x03, 0x01, 0x00, 0x00, 0x00, 0x9e, 0xd5, 0xff, 0xff,
  0x10, 0x00, 0x00, 0x00, 0x0b, 0x00, 0x00, 0x00, 0x1c, 0x00, 0x00, 0x00,
  0x28, 0x00, 0x00, 0x00, 0x04, 0x00, 0x00, 0x00, 0x01, 0x00, 0x00, 0x00,
  0x40, 0x00, 0x00, 0x00, 0x03, 0x00, 0x00, 0x00, 0x08, 0x00, 0x00, 0x00,
  0x0b, 0x00, 0x00, 0x00, 0x74, 0x66, 0x6c, 0x2e, 0x63, 0x6f, 0x6e, 0x76,
  0x5f, 0x32, 0x64, 0x00, 0x88, 0xd5, 0xff, 0xff, 0x7e, 0xd6, 0xff, 0xff,
  0x04, 0x00, 0x00, 0x00, 0x40, 0x00, 0x00, 0x00, 0xc5, 0x8e, 0xb9, 0xbf,
  0x38, 0xaa, 0xf3, 0xbe, 0x79, 0x1a, 0xa7, 0x40, 0x6a, 0x66, 0xc4, 0x3f,
  0xa4, 0x6d, 0x3a, 0xbf, 0xf5, 0xcc, 0x3b, 0xbe, 0xf5, 0xd6, 0x95, 0x3e,
  0x05, 0x40, 0xe3, 0xbf, 0x6b, 0x0b, 0xa6, 0x3f, 0x6c, 0x16, 0x5a, 0xbf,
  0xec, 0x9f, 0xb8, 0xbf, 0x1d, 0xd5, 0xe6, 0xbf, 0xf8, 0x7d, 0xba, 0x40,
  0xa2, 0xef, 0x2f, 0x3e, 0x7f, 0x51, 0x01, 0xc0, 0x65, 0x8e, 0x0a, 0xbe,
  0x26, 0xd6, 0xff, 0xff, 0x10, 0x00, 0x00, 0x00, 0x0a, 0x00, 0x00, 0x00,
  0x10, 0x00, 0x00, 0x00, 0x20, 0x00, 0x00, 0x00, 0x01, 0x00, 0x00, 0x00,
  0x10, 0x00, 0x00, 0x00, 0x0d, 0x00, 0x00, 0x00, 0x73, 0x74, 0x64, 0x2e,
  0x63, 0x6f, 0x6e, 0x73, 0x74, 0x61, 0x6e, 0x74, 0x31, 0x00, 0x00, 0x00,
  0x08, 0xd6, 0xff, 0xff, 0xfe, 0xd6, 0xff, 0xff, 0x04, 0x00, 0x00, 0x00,
  0x20, 0x00, 0x00, 0x00, 0x3a, 0x74, 0x1d, 0x3e, 0x39, 0xa2, 0x0f, 0xc0,
  0xba, 0x62, 0x2c, 0x40, 0xe7, 0xad, 0x9b, 0xbf, 0x08, 0x98, 0x48, 0xbf,
  0x73, 0x0c, 0x26, 0xc0, 0xe5, 0x1a, 0x0c, 0xc0, 0x33, 0x54, 0x37, 0xc0,
  0x86, 0xd6, 0xff, 0xff, 0x10, 0x00, 0x00, 0x00, 0x09, 0x00, 0x00, 0x00,
  0x10, 0x00, 0x00, 0x00, 0x20, 0x00, 0x00, 0x00, 0x01, 0x00, 0x00, 0x00,
  0x08, 0x00, 0x00, 0x00, 0x0c, 0x00, 0x00, 0x00, 0x73, 0x74, 0x64, 0x2e,
  0x63, 0x6f, 0x6e, 0x73, 0x74, 0x61, 0x6e, 0x74, 0x00, 0x00, 0x00, 0x00,
  0x68, 0xd6, 0xff, 0xff, 0x5e, 0xd7, 0xff, 0xff, 0x04, 0x00, 0x00, 0x00,
  0x00, 0x08, 0x00, 0x00, 0xff, 0xa3, 0x1e, 0x3c, 0x28, 0x28, 0x88, 0x3d,
  0x8e, 0xc7, 0xd4, 0x3d, 0x6d, 0x3f, 0xc5, 0xbd, 0x90, 0xe7, 0x51, 0x3e,
  0xb8, 0x18, 0x1a, 0x3d, 0xf0, 0xb9, 0xc8, 0x3e, 0x2e, 0xbd, 0xce, 0xbe,
  0x98, 0x7b, 0x9f, 0x3d, 0x7e, 0x2c, 0x13, 0xbe, 0x46, 0xfe, 0xd3, 0xbe,
  0x04, 0xd6, 0xc6, 0xbc, 0xe4, 0x75, 0x49, 0xbe, 0xfb, 0xe1, 0x95, 0x3d,
  0x21, 0x94, 0xe0, 0x3c, 0x89, 0x21, 0xe0, 0xbe, 0x89, 0x76, 0xb9, 0xbd,
  0xe1, 0xa3, 0x1e, 0xbe, 0xa3, 0x9c, 0x7e, 0xbe, 0xdc, 0x21, 0x07, 0xbf,
  0x9d, 0x80, 0x53, 0xbe, 0xf5, 0x36, 0xa1, 0x3d, 0x3d, 0xd2, 0x0b, 0xbd,
  0x21, 0x3c, 0x6c, 0xbe, 0x2b, 0xdd, 0xfa, 0xbd, 0xea, 0xf6, 0x12, 0xbe,
  0xbe, 0x3d, 0x51, 0xbd, 0x20, 0xa5, 0x18, 0xbe, 0x2b, 0xce, 0xdb, 0xbd,
  0x74, 0x20, 0xc0, 0x3d, 0xde, 0x3b, 0xe3, 0xbd, 0xdf, 0x6f, 0x14, 0x3e,
  0x48, 0xec, 0xcc, 0xbe, 0x64, 0xd7, 0x87, 0xbe, 0xca, 0xce, 0x4e, 0xbe,
  0xf7, 0x0d, 0x49, 0xbe, 0xf7, 0x20, 0x96, 0x3e, 0xc5, 0xe9, 0xdc, 0x3d,
  0xe8, 0xf9, 0x69, 0xbe, 0x4c, 0xbd, 0xcf, 0xbd, 0x28, 0x12, 0xf8, 0xbe,
  0x77, 0x49, 0x99, 0xbd, 0x06, 0x4c, 0x85, 0x3d, 0xdf, 0x1b, 0x31, 0x3d,
  0xb1, 0xaf, 0xa5, 0xbe, 0x8c, 0xa2, 0xdc, 0x3d, 0x02, 0x58, 0xc9, 0xbc,
  0xcb, 0x60, 0x17, 0x3d, 0xa1, 0xaf, 0x3f, 0xbf, 0x5a, 0x0e, 0xe5, 0xbc,
  0x8c, 0xe5, 0x12, 0xbd, 0x54, 0xae, 0xd7, 0xbc, 0xfb, 0xb3, 0x26, 0xbd,
  0xce, 0x5f, 0x46, 0x3d, 0x18, 0xf1, 0x70, 0x3d, 0x14, 0xeb, 0x8b, 0x3d,
  0xb9, 0x8d, 0xc4, 0xbe, 0xb1, 0x4c, 0xba, 0x3e, 0xfa, 0x13, 0x26, 0x3d,
  0xaa, 0x3f, 0x5d, 0x3d, 0x19, 0x72, 0x6f, 0x3e, 0x35, 0xe1, 0xe3, 0xbc,
  0xe8, 0x67, 0x51, 0xbc, 0xb1, 0x29, 0x9f, 0x3d, 0x07, 0xd8, 0xe6, 0x3d,
  0xba, 0x85, 0x82, 0xbe, 0xfe, 0x09, 0xac, 0x3e, 0x59, 0xdc, 0x17, 0xbf,
  0xdb, 0x30, 0x01, 0xbf, 0xc9, 0xd2, 0x97, 0xbe, 0xb0, 0xdb, 0x87, 0xbe,
  0x9b, 0x44, 0x7d, 0xbe, 0xea, 0x26, 0x18, 0x3d, 0xc8, 0xd6, 0xf4, 0xbe,
  0x30, 0x39, 0xc2, 0x3e, 0x36, 0x49, 0xdc, 0xbe, 0x4b, 0x1c, 0xcc, 0xbe,
  0x17, 0xc5, 0x9f, 0xbe, 0x5c, 0x7e, 0x99, 0xbe, 0xd2, 0x1d, 0xbd, 0xbe,
  0xc2, 0x85, 0xf8, 0x3d, 0xb5, 0xd1, 0x06, 0xbf, 0x3a, 0x27, 0xf0, 0x3e,
  0xd3, 0x4d, 0xd1, 0xbe, 0x65, 0xb5, 0xeb, 0xbd, 0x5a, 0xef, 0x0b, 0xbf,
  0x47, 0x6d, 0xdb, 0xbe, 0x37, 0x2e, 0x8e, 0xbe, 0x81, 0x68, 0xb0, 0x3d,
  0x07, 0xe5, 0xed, 0xbe, 0x24, 0x8d, 0x15, 0x3f, 0xd0, 0xd6, 0xac, 0xbe,
  0x54, 0x67, 0xa5, 0xbe, 0x8a, 0x21, 0xad, 0xbe, 0x99, 0x21, 0xb7, 0xbe,
  0x10, 0xc0, 0xff, 0xbe, 0x17, 0x24, 0x81, 0x3c, 0x12, 0x37, 0x44, 0xbe,
  0x72, 0xba, 0x04, 0xbe, 0xf8, 0x45, 0x9e, 0xbd, 0x62, 0x1f, 0x38, 0x3e,
  0x7e, 0x22, 0x98, 0x3e, 0xbe, 0x29, 0x30, 0xbc, 0xff, 0x8d, 0x01, 0xbe,
  0x8c, 0x8f, 0x9a, 0x3d, 0x5b, 0x7f, 0xfd, 0x3c, 0x8c, 0xf1, 0x9c, 0x3e,
  0xd8, 0x75, 0x2d, 0x3c, 0xc8, 0x91, 0x12, 0xbb, 0x33, 0xb2, 0xae, 0x3d,
  0x44, 0x94, 0xe0, 0x3c, 0x74, 0x5d, 0xc2, 0xbd, 0xae, 0xfc, 0x6a, 0x3d,
  0xd6, 0x66, 0xe5, 0xbb, 0xb1, 0xd5, 0x08, 0xbe, 0xc2, 0xc7, 0x3a, 0x3d,
  0x3c, 0xf0, 0x3e, 0x3e, 0x95, 0xb3, 0x1a, 0xbc, 0x9d, 0xf2, 0x10, 0xbd,
  0xc3, 0xc1, 0x04, 0xbe, 0x47, 0xf4, 0x08, 0x3e, 0x77, 0xd6, 0x1b, 0xbe,
  0xf5, 0x02, 0xb6, 0xbd, 0x8a, 0x1d, 0x17, 0xbd, 0x4a, 0x63, 0x7b, 0xbd,
  0x98, 0xfc, 0x99, 0xbd, 0xf4, 0x09, 0x2d, 0x3d, 0x17, 0x25, 0x0b, 0xbe,
  0xb8, 0xa6, 0xac, 0xbe, 0xd8, 0x49, 0x46, 0xbd, 0x35, 0xf5, 0x3c, 0xbe,
  0xeb, 0x39, 0x84, 0xbe, 0xd6, 0x6d, 0x71, 0xbe, 0xf1, 0x82, 0xbe, 0xbc,
  0x05, 0x33, 0x6e, 0xbe, 0x40, 0xac, 0xec, 0x3c, 0xf6, 0xf0, 0xbe, 0xbc,
  0xb5, 0xfc, 0x10, 0x3d, 0x5a, 0x4e, 0x64, 0xbe, 0xb9, 0x95, 0xbb, 0xbe,
  0x7c, 0x05, 0xd9, 0xbd, 0xdc, 0x57, 0x2a, 0xbd, 0x5b, 0xab, 0xa7, 0xbd,
  0xda, 0xce, 0x1a, 0x3e, 0x51, 0x64, 0x13, 0x3e, 0x7b, 0x84, 0xcb, 0x3d,
  0x6c, 0x1e, 0xd7, 0xbd, 0x6d, 0xfc, 0x17, 0xbe, 0x36, 0x7e, 0x28, 0xbd,
  0xfb, 0xe5, 0x25, 0x3e, 0x0c, 0x34, 0x20, 0x3e, 0xd1, 0x40, 0x4c, 0x3c,
  0xb7, 0x89, 0x90, 0xbd, 0x87, 0x53, 0xb7, 0xbd, 0xbe, 0xa2, 0x24, 0xbe,
  0xe1, 0xca, 0xf8, 0xbc, 0xce, 0x96, 0x88, 0xbe, 0xca, 0x55, 0x02, 0x3d,
  0x53, 0x63, 0x00, 0x3f, 0x83, 0x63, 0xc8, 0x3b, 0xad, 0x14, 0x12, 0x3b,
  0x22, 0x81, 0xc7, 0xbe, 0x17, 0x85, 0x34, 0xbe, 0xca, 0x12, 0xcf, 0xbd,
  0x78, 0x36, 0x62, 0xbd, 0x3f, 0xfc, 0xee, 0xbd, 0x99, 0xb0, 0x8e, 0xbe,
  0x9d, 0x9f, 0x38, 0xbe, 0x05, 0x96, 0x9c, 0xbd, 0xcf, 0xef, 0xc5, 0xbe,
  0x7c, 0x2b, 0xe7, 0xbc, 0xf4, 0xb9, 0xb6, 0x3c, 0xa9, 0x29, 0xb0, 0xbd,
  0x35, 0xe5, 0x58, 0xbd, 0x8c, 0x25, 0x7b, 0xbe, 0xae, 0x41, 0x93, 0xbd,
  0x64, 0x71, 0xba, 0xbd, 0x89, 0x63, 0x93, 0xbe, 0xa2, 0x62, 0xaf, 0x3b,
  0xe2, 0x15, 0x12, 0xbd, 0xc6, 0x70, 0x66, 0xbd, 0x84, 0x66, 0x68, 0xbd,
  0x87, 0x4a, 0xff, 0xbb, 0x4f, 0xd2, 0xa8, 0xbd, 0xc6, 0x90, 0x81, 0xbe,
  0x71, 0x4b, 0xb9, 0xbe, 0x2f, 0xc2, 0xf0, 0xbc, 0x1a, 0xb3, 0xac, 0xbc,
  0xd6, 0xc3, 0x54, 0x3c, 0x33, 0x70, 0x33, 0x3f, 0x72, 0x8f, 0x14, 0x3d,
  0x53, 0xa6, 0xc6, 0x3d, 0x42, 0xc4, 0xaf, 0x3e, 0x5c, 0x83, 0x8e, 0x3d,
  0xb7, 0x2d, 0x1f, 0xbe, 0x3a, 0x59, 0xfd, 0xbd, 0xfd, 0x2a, 0xf5, 0xbe,
  0x6b, 0x1d, 0x8b, 0xbd, 0xb1, 0x96, 0x8c, 0x3e, 0x2a, 0x9c, 0xcb, 0x3d,
  0x24, 0x84, 0x20, 0x3d, 0xfd, 0x94, 0xb1, 0x3d, 0x40, 0x2d, 0x91, 0xbc,
  0x6f, 0xd6, 0x9a, 0x3c, 0x29, 0x24, 0x03, 0xbf, 0x9a, 0x5c, 0xed, 0xbc,
  0x49, 0xca, 0x8f, 0xbc, 0x35, 0x2c, 0xb3, 0xbc, 0x08, 0x8a, 0x0e, 0xbf,
  0x76, 0x53, 0x87, 0xbd, 0x52, 0xf7, 0x5c, 0x3e, 0x7e, 0xfc, 0x26, 0x3e,
  0x6a, 0x2a, 0xc1, 0x3a, 0xf9, 0x0d, 0xe7, 0xbd, 0x65, 0x0e, 0x74, 0xbd,
  0x81, 0x02, 0x79, 0x3c, 0x09, 0xee, 0x53, 0xbf, 0xf9, 0xf4, 0x3a, 0x3d,
  0xd8, 0xbd, 0x42, 0x3d, 0xec, 0xcb, 0x8e, 0x3b, 0xbd, 0x93, 0x31, 0xbd,
  0xf7, 0x1c, 0x35, 0xbe, 0xc2, 0x61, 0x0a, 0xbe, 0x78, 0x98, 0xec, 0xbc,
  0xca, 0xa8, 0x30, 0x3c, 0xc4, 0x49, 0x50, 0x3c, 0xa7, 0x80, 0x15, 0xbe,
  0xbc, 0xc2, 0x35, 0xbe, 0x95, 0x36, 0x6f, 0xbd, 0x92, 0x6d, 0x92, 0xbc,
  0xcb, 0x8e, 0x36, 0x3f, 0x0b, 0x46, 0x49, 0xbd, 0xe7, 0xee, 0x0c, 0xbd,
  0xde, 0xf1, 0x3d, 0xbe, 0x92, 0x6d, 0xff, 0xbd, 0xe1, 0x29, 0xff, 0xbd,
  0x3b, 0xdf, 0x9d, 0xbe, 0x98, 0x67, 0x35, 0xbd, 0x68, 0x0d, 0xdd, 0xbd,
  0x5d, 0xc2, 0x98, 0xbd, 0x84, 0x2c, 0x2c, 0xbd, 0x6a, 0xb5, 0xd9, 0xbd,
  0xed, 0x1d, 0xb6, 0x3d, 0xc2, 0x87, 0xb0, 0x3d, 0x28, 0x2d, 0x09, 0xbe,
  0x39, 0xd7, 0x9b, 0x3c, 0x4c, 0xa2, 0x05, 0xbe, 0x71, 0xeb, 0x18, 0xbd,
  0xef, 0x37, 0x28, 0xbd, 0xd1, 0x85, 0xcc, 0xbd, 0xe5, 0xbb, 0xe9, 0x3c,
  0xdb, 0x6d, 0x06, 0x3e, 0xb7, 0x41, 0xcf, 0xbd, 0x5d, 0x53, 0xdd, 0x3c,
  0xc7, 0x46, 0x2b, 0xbe, 0x11, 0x55, 0x53, 0x3d, 0x5f, 0xea, 0x36, 0xbd,
  0xdd, 0xd6, 0xe4, 0xbd, 0xf2, 0x13, 0x56, 0xbe, 0x23, 0x11, 0x87, 0xbe,
  0xcf, 0xf8, 0x7a, 0xbe, 0xab, 0x99, 0x86, 0xbe, 0x5e, 0xf5, 0x65, 0xbc,
  0x90, 0x68, 0xce, 0x3d, 0x64, 0x51, 0xe4, 0x3d, 0x2f, 0x75, 0x21, 0x3e,
  0x1c, 0x56, 0x10, 0x3d, 0x27, 0x0e, 0x19, 0x3e, 0xe7, 0xa6, 0x1c, 0xbe,
  0x42, 0x15, 0xa0, 0xbe, 0xc9, 0xd2, 0x7f, 0x3e, 0x75, 0x08, 0xe3, 0xbd,
  0x6d, 0x8a, 0x81, 0xbd, 0xd9, 0x2d, 0x55, 0xbd, 0xc1, 0x8f, 0x20, 0xbe,
  0x66, 0x8b, 0x37, 0xbe, 0x6a, 0x08, 0x0f, 0xbe, 0x75, 0xb5, 0x35, 0xbe,
  0xf5, 0x22, 0xb1, 0xbd, 0x75, 0x34, 0xd3, 0xbd, 0x10, 0x82, 0x6a, 0x3d,
  0xaf, 0x32, 0xbc, 0x3d, 0x21, 0x2e, 0xe5, 0x3c, 0x8b, 0x5a, 0xe5, 0xbc,
  0x77, 0x67, 0xab, 0x3d, 0x1c, 0x16, 0xb3, 0xbe, 0xad, 0xbd, 0x80, 0x3e,
  0x3d, 0x29, 0x33, 0xbd, 0x3d, 0xb5, 0x23, 0xbe, 0x58, 0xdc, 0x85, 0xbe,
  0xae, 0xcb, 0xfb, 0xbd, 0x96, 0xf4, 0x28, 0xbe, 0x49, 0x36, 0x52, 0xbe,
  0xee, 0xe6, 0xce, 0xbd, 0x7f, 0x6c, 0x26, 0x3e, 0x5b, 0x6c, 0x1f, 0xbe,
  0xf2, 0xb6, 0xcd, 0xbd, 0x01, 0x4d, 0x68, 0xbe, 0xa7, 0x24, 0x87, 0xbe,
  0x49, 0x09, 0x49, 0xbe, 0x26, 0x7e, 0x6c, 0xbe, 0xa1, 0x2d, 0x97, 0xbd,
  0x7c, 0xc6, 0x87, 0xbd, 0xba, 0x77, 0x11, 0xbe, 0x1f, 0x9c, 0x1e, 0x3d,
  0x63, 0x38, 0x6c, 0xbe, 0x0c, 0xfb, 0xc7, 0xbd, 0x9a, 0x05, 0x25, 0xbd,
  0xfc, 0xc9, 0x5d, 0xbe, 0x05, 0xac, 0x08, 0x3c, 0xaa, 0x86, 0x11, 0xbe,
  0x02, 0x3f, 0x48, 0xbd, 0xc0, 0xac, 0x67, 0x3e, 0x0a, 0xc6, 0xdc, 0x3d,
  0xcd, 0x3d, 0x9e, 0xbc, 0xaa, 0x63, 0x1a, 0x3a, 0xf4, 0x9d, 0xdc, 0x3e,
  0xfe, 0x1f, 0xf8, 0x3e, 0xea, 0xb6, 0xcf, 0xbd, 0x45, 0x4a, 0x64, 0x3e,
  0xd3, 0x1f, 0xf7, 0x3e, 0x22, 0xe1, 0xda, 0xbb, 0xe8, 0x38, 0xcf, 0xbd,
  0xf6, 0xce, 0x6d, 0xbe, 0x67, 0x5b, 0x63, 0x3d, 0x7b, 0x51, 0x80, 0xbd,
  0xbb, 0x86, 0x20, 0x3d, 0x7d, 0x95, 0x16, 0xbe, 0xb3, 0x5e, 0xc3, 0xbd,
  0xd8, 0x4c, 0xeb, 0x3d, 0x8b, 0x38, 0x1d, 0xbf, 0x48, 0xd1, 0x06, 0xbf,
  0x94, 0x6a, 0xc3, 0xbe, 0x79, 0x13, 0xc1, 0xbd, 0xc4, 0x1d, 0x1b, 0xbd,
  0xd3, 0xa4, 0xf1, 0xbe, 0xee, 0x49, 0x8a, 0xbe, 0x18, 0xe7, 0xa6, 0xbe,
  0x1c, 0xe0, 0xca, 0x3d, 0x2d, 0x7c, 0x4a, 0xbe, 0x95, 0x4e, 0xda, 0xbe,
  0x28, 0xe9, 0x19, 0x3e, 0xc0, 0xe2, 0x83, 0x3d, 0x52, 0x34, 0xd2, 0xbe,
  0x7d, 0x44, 0x81, 0xbe, 0xc3, 0x09, 0x9c, 0xbe, 0xd1, 0x9c, 0x74, 0x3e,
  0xbf, 0x41, 0x1b, 0x3d, 0x72, 0xd0, 0xec, 0xbe, 0x9a, 0xc1, 0x67, 0x3e,
  0x29, 0x9f, 0xb3, 0x3d, 0x0b, 0x4d, 0x29, 0xbe, 0xc6, 0x8d, 0xe3, 0xbd,
  0xc1, 0xb2, 0x7b, 0xbe, 0x6d, 0xfa, 0xc6, 0xbd, 0x6a, 0x0f, 0xc7, 0xbd,
  0x7a, 0xe2, 0x56, 0xbe, 0x01, 0x38, 0x28, 0xbd, 0x5a, 0x69, 0x41, 0xbe,
  0xf7, 0x55, 0x07, 0xbe, 0xf8, 0x11, 0xd0, 0xbd, 0xaa, 0x72, 0x3b, 0xbe,
  0xde, 0xc0, 0x5e, 0xbd, 0x02, 0x3d, 0x12, 0xbe, 0x92, 0x1f, 0x19, 0xbc,
  0x8b, 0xf7, 0x82, 0x3e, 0x6a, 0xca, 0x0e, 0xbe, 0xdc, 0x61, 0x85, 0xbd,
  0x0a, 0x6a, 0x1b, 0xbd, 0x7f, 0x69, 0x3d, 0x3e, 0x79, 0x96, 0xad, 0x3c,
  0x71, 0x44, 0x81, 0x3c, 0x95, 0xad, 0xc0, 0x3d, 0xee, 0x7b, 0x22, 0xbe,
  0x30, 0x55, 0x94, 0xbb, 0x9b, 0x02, 0x46, 0x3c, 0x39, 0x56, 0x3f, 0x3e,
  0x35, 0x9a, 0x9f, 0x3e, 0xe7, 0x88, 0x88, 0xbd, 0xd5, 0xeb, 0x0e, 0xbd,
  0xb3, 0xc3, 0xd4, 0x3d, 0xdb, 0xa8, 0x1b, 0xbe, 0x68, 0x41, 0xb1, 0x3c,
  0xa3, 0xc7, 0xaf, 0x3d, 0xec, 0xfc, 0x3c, 0x3d, 0x2a, 0xee, 0x84, 0x3d,
  0x25, 0x35, 0xaa, 0x3b, 0x07, 0x34, 0x51, 0xbe, 0xe5, 0x89, 0x10, 0xbe,
  0x93, 0xc6, 0x35, 0xbe, 0x79, 0x6d, 0xed, 0xbc, 0x78, 0xda, 0x95, 0xbd,
  0x63, 0x92, 0xf2, 0xbd, 0xa3, 0x6c, 0xa4, 0x3c, 0x78, 0x4d, 0xa7, 0x3d,
  0x64, 0xfc, 0x04, 0xbe, 0xf9, 0xd1, 0x66, 0xbe, 0x17, 0x59, 0xa3, 0xbe,
  0xe2, 0x08, 0x01, 0xbd, 0x78, 0x5b, 0x97, 0x3d, 0x48, 0xd7, 0x5a, 0xbe,
  0x4a, 0x49, 0x9d, 0xbd, 0x49, 0xdb, 0x23, 0x3e, 0xd4, 0x42, 0x5e, 0xbe,
  0xa9, 0x29, 0x09, 0x3e, 0xfc, 0x9f, 0x1a, 0xbe, 0xa3, 0x92, 0xde, 0x3c,
  0x01, 0xcf, 0x28, 0x3e, 0xb8, 0x3e, 0x4a, 0x3d, 0x0b, 0x92, 0xf2, 0xbe,
  0xdb, 0xcb, 0x57, 0x3c, 0x40, 0x07, 0x0f, 0xbf, 0x8b, 0x40, 0x15, 0xbf,
  0xbb, 0xbc, 0xf7, 0xbe, 0x6a, 0x76, 0xaa, 0xbe, 0x26, 0x84, 0xa1, 0xbe,
  0xfa, 0xf3, 0xdb, 0xbd, 0xa1, 0x1f, 0x93, 0xbd, 0x96, 0xa6, 0xd3, 0x3d,
  0x9d, 0xa0, 0x50, 0x3b, 0x34, 0x82, 0xa2, 0xbd, 0xf9, 0x4f, 0x15, 0xbe,
  0x2b, 0x11, 0x26, 0x3e, 0x78, 0x4a, 0x23, 0xbe, 0xc1, 0x56, 0x05, 0xbe,
  0xf2, 0x7e, 0x36, 0xbd, 0x45, 0x54, 0x1c, 0x3d, 0xdc, 0xf3, 0x6d, 0x3d,
  0x81, 0xff, 0x3f, 0x3e, 0xf7, 0x83, 0xed, 0x3e, 0x3a, 0x16, 0x89, 0x3c,
  0x1a, 0x31, 0x11, 0xbe, 0x33, 0x62, 0x1e, 0xbe, 0xcb, 0x68, 0x7f, 0x3d,
  0xb4, 0xc4, 0x7b, 0x3e, 0x73, 0x5f, 0x1b, 0x3e, 0x3b, 0x83, 0x97, 0x3d,
  0x6a, 0x9d, 0xe1, 0xbd, 0x85, 0xf8, 0x60, 0xbd, 0x99, 0x6c, 0x37, 0xbe,
  0xb3, 0x16, 0xa3, 0xbd, 0xf9, 0xd0, 0xa8, 0xbb, 0x6d, 0x72, 0xf4, 0x3c,
  0x95, 0x75, 0xaf, 0xbd, 0x94, 0xf6, 0xb2, 0x3d, 0x3e, 0x45, 0xb4, 0xbd,
  0x2f, 0xbc, 0xab, 0x3c, 0x24, 0xd3, 0x2c, 0xbe, 0xae, 0xc3, 0xc0, 0xbe,
  0xd7, 0xa2, 0xd1, 0x39, 0x61, 0x1a, 0x2c, 0x3f, 0xbc, 0xb1, 0xa5, 0x3e,
  0x96, 0x5a, 0x78, 0x3e, 0x5b, 0xc6, 0x56, 0x3d, 0x27, 0x92, 0x89, 0xbe,
  0xe5, 0x41, 0x73, 0x3d, 0x3f, 0xdc, 0x56, 0xbe, 0x82, 0x27, 0x21, 0x3e,
  0x19, 0x71, 0x09, 0xbe, 0x63, 0xbe, 0x40, 0xbd, 0xb9, 0x4a, 0xb6, 0xbd,
  0x33, 0x4b, 0x97, 0xbe, 0x2e, 0x1e, 0x4e, 0xbe, 0x34, 0x3f, 0xe5, 0xbd,
  0x9e, 0xcd, 0x7a, 0x3c, 0xa7, 0x2b, 0xc9, 0x3d, 0x9f, 0x02, 0x09, 0xbe,
  0xe4, 0x58, 0x19, 0xbe, 0x45, 0xb8, 0x92, 0xbd, 0xd8, 0x4a, 0xb1, 0xbd,
  0x80, 0x4b, 0x94, 0xbd, 0xbc, 0x50, 0x73, 0xbd, 0x8a, 0xc0, 0x34, 0x3e,
  0xb0, 0x42, 0x3a, 0xbe, 0xa6, 0x4c, 0x85, 0xbe, 0x62, 0xf0, 0x4d, 0xbe,
  0xd2, 0xa8, 0x95, 0xbe, 0x1d, 0xf0, 0xd6, 0xbd, 0xf0, 0x6e, 0xa4, 0x3c,
  0xc0, 0xcb, 0xa8, 0xbd, 0x4e, 0x78, 0xcc, 0xbe, 0x47, 0x90, 0xdf, 0xbe,
  0x51, 0x15, 0x93, 0xbd, 0x61, 0x59, 0x5f, 0xbd, 0x2b, 0x25, 0xbb, 0xbc,
  0x6c, 0xe6, 0x86, 0x3c, 0x66, 0xc0, 0x57, 0xbe, 0x22, 0x65, 0x58, 0xbd,
  0x7e, 0x2b, 0xb1, 0xbe, 0x60, 0x4d, 0x11, 0x3e, 0xd8, 0x4a, 0xde, 0x3d,
  0x20, 0x34, 0x67, 0x3e, 0x12, 0x1d, 0x8b, 0xbd, 0x18, 0x96, 0x01, 0x3e,
  0x2f, 0x17, 0x19, 0x3e, 0xe3, 0xa6, 0x23, 0x3e, 0xdf, 0x52, 0x02, 0xbf,
  0xe6, 0x70, 0x2b, 0xbe, 0x64, 0x4f, 0xfd, 0x3d, 0xd1, 0x6c, 0x39, 0x3c,
  0x5a, 0xa9, 0xb2, 0xbe, 0xd0, 0x3b, 0x09, 0xbe, 0xe6, 0x76, 0x9a, 0xbe,
  0xd1, 0x5f, 0xa1, 0xbd, 0xf2, 0x15, 0xf0, 0xbc, 0x5d, 0x6e, 0x96, 0x3c,
  0xb9, 0xfd, 0x03, 0x3e, 0xb5, 0x1a, 0x00, 0x3d, 0xa9, 0x2a, 0x69, 0xbd,
  0x1c, 0x9b, 0xd4, 0xbd, 0x37, 0x43, 0x89, 0xbd, 0xd9, 0x07, 0xe1, 0xbd,
  0xc6, 0xde, 0xff, 0xff, 0x10, 0x00, 0x00, 0x00, 0x08, 0x00, 0x00, 0x00,
  0x1c, 0x00, 0x00, 0x00, 0x38, 0x00, 0x00, 0x00, 0x04, 0x00, 0x00, 0x00,
  0x10, 0x00, 0x00, 0x00, 0x04, 0x00, 0x00, 0x00, 0x01, 0x00, 0x00, 0x00,
  0x08, 0x00, 0x00, 0x00, 0x1a, 0x00, 0x00, 0x00, 0x73, 0x65, 0x71, 0x75,
  0x65, 0x6e, 0x74, 0x69, 0x61, 0x6c, 0x2f, 0x63, 0x6f, 0x6e, 0x76, 0x32,
  0x64, 0x5f, 0x31, 0x2f, 0x43, 0x6f, 0x6e, 0x76, 0x32, 0x44, 0x00, 0x00,
  0xc0, 0xde, 0xff, 0xff, 0xb6, 0xdf, 0xff, 0xff, 0x04, 0x00, 0x00, 0x00,
  0x80, 0x01, 0x00, 0x00, 0xb1, 0x6c, 0x33, 0x3c, 0x9d, 0xfe, 0x35, 0x3e,
  0x06, 0xea, 0x79, 0xbe, 0x5c, 0x6b, 0xdc, 0x3c, 0xc8, 0x30, 0xb6, 0x3b,
  0xa2, 0xfd, 0x84, 0xbe, 0xbc, 0x21, 0x13, 0x3e, 0xc6, 0x53, 0x5c, 0xbe,
  0xe8, 0x80, 0x2a, 0x3d, 0x3e, 0x31, 0xb7, 0x3d, 0xf3, 0x20, 0x44, 0xbe,
  0x79, 0xaa, 0x69, 0x3e, 0x64, 0x32, 0x37, 0x3e, 0x5d, 0xad, 0x7a, 0x3e,
  0xd4, 0x73, 0xf2, 0xbd, 0x8e, 0x09, 0x34, 0x3e, 0xb2, 0xf0, 0xbc, 0xbd,
  0x86, 0x81, 0x9b, 0x3d, 0xbf, 0xca, 0x26, 0xbe, 0xfa, 0xfc, 0x52, 0xbe,
  0x6d, 0xf4, 0x9c, 0x3d, 0x64, 0x9e, 0x58, 0xbe, 0xba, 0x25, 0xdd, 0xbd,
  0x7e, 0x01, 0x24, 0x3d, 0x3f, 0xc7, 0xb7, 0x3e, 0xf6, 0x37, 0x66, 0x3d,
  0x78, 0x62, 0x04, 0x3c, 0x5b, 0x75, 0x0d, 0x3e, 0x75, 0xb1, 0x90, 0xbd,
  0x69, 0x1f, 0x25, 0x3e, 0x62, 0x58, 0x1c, 0x3d, 0x63, 0x65, 0x53, 0x3e,
  0xa5, 0xc1, 0x74, 0xbe, 0xee, 0xc6, 0x89, 0xbe, 0x04, 0xb0, 0xca, 0xbd,
  0xc5, 0x71, 0xb7, 0x3c, 0x20, 0x48, 0xc8, 0x3e, 0x47, 0x6a, 0xf6, 0x3d,
  0x68, 0x54, 0x0b, 0xbd, 0x08, 0x7c, 0x1d, 0x3e, 0xaf, 0x83, 0xd1, 0xbb,
  0xa0, 0x8a, 0xc6, 0x3d, 0xb4, 0x0e, 0x3c, 0xbe, 0xab, 0x88, 0x90, 0xbd,
  0xdd, 0x06, 0x0e, 0xbc, 0x3f, 0x13, 0x12, 0x3b, 0x37, 0x81, 0x32, 0x3d,
  0xae, 0xbe, 0xf1, 0xbd, 0x55, 0x9c, 0x8e, 0x3e, 0x8b, 0xfb, 0x5a, 0xbc,
  0x85, 0x1d, 0xec, 0xb8, 0xf9, 0x91, 0x7e, 0x3e, 0xaf, 0x38, 0x6c, 0x3e,
  0xed, 0x3d, 0x0b, 0x3e, 0xca, 0x39, 0x39, 0xbe, 0xf9, 0xfb, 0xe8, 0x3d,
  0xdf, 0x05, 0xcb, 0x3d, 0x3c, 0x99, 0x19, 0xbe, 0x73, 0x14, 0xda, 0xbe,
  0x2d, 0x6b, 0x9c, 0xbe, 0x04, 0x33, 0x37, 0xbd, 0x5a, 0x12, 0x75, 0xbe,
  0xe3, 0xd6, 0xbe, 0xbd, 0xeb, 0x9c, 0xb4, 0x3d, 0xad, 0xcc, 0x4a, 0xbe,
  0x37, 0x43, 0x32, 0xbe, 0x7b, 0x64, 0x56, 0x3d, 0x8f, 0x30, 0x3b, 0x3e,
  0x20, 0x7b, 0xd7, 0x3c, 0x02, 0xf3, 0xa3, 0x3e, 0x28, 0xf7, 0x6c, 0x3e,
  0xff, 0xef, 0x87, 0x3e, 0xd6, 0x8e, 0x0e, 0x3e, 0x9a, 0xc2, 0x77, 0xbe,
  0x9e, 0xda, 0xa1, 0x3c, 0x1f, 0x1e, 0x1b, 0x3e, 0xd1, 0x2f, 0x9f, 0xbe,
  0x5e, 0xcd, 0x2f, 0x3e, 0x73, 0x03, 0x9c, 0xbd, 0xe7, 0xf8, 0x99, 0xbd,
  0x4f, 0x1a, 0xc5, 0x3b, 0x42, 0x68, 0x8a, 0xbe, 0xa9, 0xd7, 0xec, 0x3e,
  0xff, 0x4e, 0xf7, 0xbd, 0x12, 0xc2, 0xca, 0x3d, 0x11, 0x48, 0x9e, 0x3c,
  0x44, 0xb3, 0x89, 0x3d, 0x34, 0x9e, 0xdf, 0x3c, 0xd1, 0xad, 0xad, 0xbc,
  0x9e, 0x36, 0x3a, 0x3d, 0x31, 0x53, 0x84, 0x3c, 0xd9, 0xac, 0x91, 0x3b,
  0xa9, 0x2f, 0xb7, 0x3c, 0xb7, 0x08, 0x22, 0x3c, 0x03, 0x98, 0xab, 0x3b,
  0xd5, 0xb1, 0x12, 0x3d, 0x9e, 0xe0, 0xff, 0xff, 0x10, 0x00, 0x00, 0x00,
  0x07, 0x00, 0x00, 0x00, 0x1c, 0x00, 0x00, 0x00, 0x38, 0x00, 0x00, 0x00,
  0x04, 0x00, 0x00, 0x00, 0x08, 0x00, 0x00, 0x00, 0x04, 0x00, 0x00, 0x00,
  0x03, 0x00, 0x00, 0x00, 0x01, 0x00, 0x00, 0x00, 0x18, 0x00, 0x00, 0x00,
  0x73, 0x65, 0x71, 0x75, 0x65, 0x6e, 0x74, 0x69, 0x61, 0x6c, 0x2f, 0x63,
  0x6f, 0x6e, 0x76, 0x32, 0x64, 0x2f, 0x43, 0x6f, 0x6e, 0x76, 0x32, 0x44,
  0x00, 0x00, 0x00, 0x00, 0x98, 0xe0, 0xff, 0xff, 0x8e, 0xe1, 0xff, 0xff,
  0x04, 0x00, 0x00, 0x00, 0x00, 0x01, 0x00, 0x00, 0x0f, 0x3d, 0xcc, 0xbd,
  0xe9, 0x54, 0x30, 0xbe, 0x28, 0x72, 0x84, 0x3d, 0xc8, 0x34, 0x67, 0x3c,
  0xee, 0xab, 0x1e, 0x3e, 0xfc, 0xe0, 0xd8, 0xbd, 0x88, 0x86, 0x5d, 0xbe,
  0xde, 0x54, 0xd1, 0x3d, 0xd8, 0x39, 0x5f, 0xbe, 0xd4, 0x7c, 0x82, 0xbe,
  0x59, 0x9e, 0x64, 0x3e, 0x3e, 0xef, 0x61, 0x3d, 0xa4, 0xee, 0xfa, 0x3d,
  0xe9, 0x24, 0xbe, 0x3d, 0x83, 0x47, 0xa0, 0x3e, 0xdd, 0x0d, 0xd0, 0xbd,
  0xee, 0x7b, 0xd0, 0xbd, 0xe3, 0x3c, 0xf8, 0xbd, 0xfe, 0xdc, 0x4d, 0x3d,
  0xdb, 0xdd, 0x7a, 0x3d, 0xb1, 0x04, 0x47, 0x3e, 0x1e, 0xef, 0xa0, 0xbd,
  0xe5, 0x02, 0x3f, 0xbf, 0x06, 0xa8, 0x85, 0xbd, 0x77, 0x7b, 0x30, 0xbe,
  0xce, 0x03, 0x87, 0xbe, 0x98, 0xb8, 0x90, 0xbe, 0xae, 0x53, 0x90, 0x3d,
  0x4a, 0x03, 0x96, 0x3d, 0x3c, 0x0c, 0x9c, 0x3d, 0xd7, 0x56, 0x99, 0x3e,
  0x9e, 0x6a, 0x9b, 0xbd, 0x96, 0x5c, 0xa6, 0xbc, 0xc5, 0x34, 0x6c, 0xbe,
  0x6a, 0xb6, 0xe4, 0x3c, 0x2a, 0x5a, 0x9d, 0x3c, 0x1b, 0x44, 0x40, 0x3e,
  0x9d, 0x79, 0x64, 0xbd, 0xaf, 0xb1, 0x3e, 0xbe, 0xe5, 0xec, 0x14, 0x3d,
  0xd4, 0x69, 0x81, 0xbe, 0xc4, 0x56, 0xd4, 0xbe, 0x26, 0x59, 0xf7, 0x3d,
  0xfc, 0x55, 0x29, 0xbb, 0x9e, 0x24, 0x0b, 0xbd, 0x2f, 0xfb, 0x01, 0x3e,
  0x65, 0x35, 0x8a, 0x3e, 0xc2, 0xd9, 0x26, 0xbd, 0x26, 0x40, 0xc8, 0xbd,
  0x18, 0xdd, 0x24, 0xbe, 0x45, 0xbd, 0x51, 0x3c, 0x0f, 0x76, 0xb5, 0x3c,
  0xa8, 0x84, 0x16, 0x3e, 0x75, 0xa3, 0x00, 0xbe, 0x0f, 0x31, 0x07, 0xbe,
  0xfd, 0xb9, 0x5f, 0xbe, 0xbe, 0x65, 0x25, 0xbe, 0xe7, 0x26, 0xa9, 0xbe,
  0x86, 0xe5, 0x07, 0x3e, 0x25, 0x1d, 0xfa, 0x3d, 0xa8, 0x6c, 0xb3, 0x3d,
  0x69, 0x24, 0x7f, 0x3d, 0xce, 0xe5, 0x4b, 0x3e, 0x73, 0xc6, 0xeb, 0xbd,
  0xf6, 0xe1, 0xff, 0xff, 0x10, 0x00, 0x00, 0x00, 0x06, 0x00, 0x00, 0x00,
  0x14, 0x00, 0x00, 0x00, 0x30, 0x00, 0x00, 0x00, 0x02, 0x00, 0x00, 0x00,
  0x04, 0x00, 0x00, 0x00, 0x10, 0x00, 0x00, 0x00, 0x19, 0x00, 0x00, 0x00,
  0x73, 0x65, 0x71, 0x75, 0x65, 0x6e, 0x74, 0x69, 0x61, 0x6c, 0x2f, 0x64,
  0x65, 0x6e, 0x73, 0x65, 0x5f, 0x31, 0x2f, 0x4d, 0x61, 0x74, 0x4d, 0x75,
  0x6c, 0x00, 0x00, 0x00, 0xe8, 0xe1, 0xff, 0xff, 0xde, 0xe2, 0xff, 0xff,
  0x04, 0x00, 0x00, 0x00, 0x00, 0x1c, 0x00, 0x00, 0x27, 0xa2, 0x32, 0xbe,
  0x87, 0x5b, 0xc1, 0xbd, 0x24, 0x97, 0x43, 0xbe, 0xc4, 0xb5, 0xcc, 0xbe,
  0x59, 0xc4, 0xda, 0xbc, 0x4d, 0x4b, 0xa9, 0xbd, 0x43, 0xdc, 0xf5, 0x3d,
  0x3e, 0x88, 0x39, 0x3e, 0x7a, 0x77, 0x97, 0xbd, 0x66, 0xaf, 0xcb, 0x3c,
  0xd7, 0x0b, 0xae, 0xbd, 0xb9, 0xed, 0x56, 0xbe, 0x60, 0x4a, 0x85, 0xbc,
  0x1e, 0x80, 0xe4, 0xbd, 0xf6, 0xdc, 0xee, 0xbd, 0xb4, 0xc4, 0x9d, 0xbd,
  0x20, 0x18, 0xb0, 0xbd, 0x0f, 0x99, 0xcc, 0x3d, 0xc1, 0x91, 0xee, 0xbd,
  0x96, 0xd7, 0x57, 0xbe, 0xca, 0xef, 0xfc, 0xbd, 0x60, 0xc6, 0x91, 0xbd,
  0x6d, 0x28, 0x92, 0x3e, 0x88, 0x28, 0x6d, 0xbc, 0x51, 0x79, 0x85, 0xbe,
  0x71, 0x5e, 0x43, 0xbe, 0xb9, 0xe8, 0x3f, 0xbe, 0xe8, 0x8d, 0x36, 0x3d,
  0x8e, 0x1d, 0x78, 0x3e, 0xaa, 0x82, 0x53, 0x3e, 0xea, 0xe3, 0x7e, 0x3e,
  0x80, 0x22, 0x0a, 0x3e, 0xb9, 0x8f, 0x1a, 0xbe, 0x7c, 0xac, 0x40, 0x3d,
  0x4d, 0x7d, 0xf2, 0xbc, 0xd4, 0x33, 0xa7, 0xbd, 0xb4, 0x65, 0x87, 0x3d,
  0xd1, 0xe6, 0xce, 0xbd, 0xc6, 0xef, 0x00, 0x3d, 0x56, 0x51, 0xaf, 0xbd,
  0x5e, 0x4c, 0x7e, 0x3d, 0x2d, 0x1e, 0x81, 0xbe, 0xb1, 0xae, 0xf2, 0x3d,
  0xeb, 0xd9, 0xde, 0xbd, 0x67, 0x7a, 0x84, 0xbe, 0xc1, 0x77, 0x8c, 0x3e,
  0x2f, 0xa9, 0xad, 0x3e, 0x02, 0x7d, 0x1c, 0x3e, 0xa2, 0x35, 0x06, 0xbd,
  0x3e, 0x22, 0x03, 0xbd, 0x6c, 0xf0, 0x87, 0xbb, 0xff, 0xef, 0xf5, 0xbe,
  0x32, 0x16, 0xa2, 0x3c, 0x33, 0x12, 0x9d, 0xbc, 0x36, 0xf9, 0x1e, 0xbe,
  0x6d, 0x34, 0x0f, 0xbe, 0x9e, 0xee, 0x61, 0x3e, 0x13, 0x56, 0xb7, 0xbd,
  0x4c, 0x65, 0x3d, 0xbe, 0x30, 0x08, 0x0a, 0x3e, 0xdb, 0x36, 0xb2, 0x3d,
  0xbe, 0xd8, 0x9a, 0xbd, 0x87, 0x10, 0x8f, 0x3e, 0x39, 0x5f, 0x41, 0x3e,
  0x54, 0x09, 0x8e, 0x3d, 0xb1, 0x42, 0x1e, 0x3d, 0x01, 0x47, 0x1b, 0x3e,
  0xef, 0xa6, 0x0b, 0xbf, 0xff, 0x6c, 0x13, 0x3e, 0x78, 0xe6, 0x00, 0x3d,
  0x72, 0x99, 0xf1, 0xbd, 0xf8, 0x6b, 0x18, 0xbe, 0x38, 0x90, 0x62, 0x3e,
  0x53, 0xcf, 0xd2, 0xbd, 0xc5, 0xf2, 0x93, 0x3c, 0x12, 0x57, 0x80, 0xbd,
  0xa1, 0xc9, 0xf0, 0xbd, 0x9d, 0x8e, 0x87, 0xbd, 0x74, 0x59, 0x4a, 0x3c,
  0xd4, 0x34, 0x32, 0x3e, 0x94, 0xfd, 0x4a, 0xbe, 0xf1, 0x74, 0x59, 0x3d,
  0xc6, 0xab, 0x36, 0xbe, 0xdc, 0xb6, 0xc2, 0xbe, 0x63, 0x86, 0xf9, 0x3d,
  0xba, 0x45, 0x8e, 0xbe, 0x8f, 0xfa, 0x38, 0xbd, 0xe4, 0xbf, 0xa2, 0xbd,
  0x75, 0x21, 0x01, 0x3e, 0x5b, 0x70, 0x35, 0xbe, 0x17, 0x2d, 0x8b, 0xbd,
  0x3e, 0xa3, 0x4d, 0xbe, 0x53, 0xc2, 0x02, 0x3e, 0x9c, 0x6e, 0x95, 0xbe,
  0x05, 0xc2, 0x30, 0xbe, 0xa5, 0x6f, 0x1d, 0x3a, 0x53, 0x4e, 0xa6, 0xbe,
  0x93, 0xf2, 0x82, 0xbd, 0x11, 0xc1, 0x02, 0x3e, 0x1d, 0x15, 0x37, 0xbe,
  0xfb, 0xa8, 0x34, 0xbb, 0x89, 0xa3, 0x41, 0x3d, 0x06, 0x8a, 0x91, 0xbe,
  0x77, 0x51, 0x6c, 0xbe, 0x4b, 0x36, 0x70, 0x3d, 0x43, 0xea, 0xc0, 0xbd,
  0xa4, 0xa2, 0x74, 0xbd, 0x0a, 0xd4, 0x6f, 0x3e, 0x14, 0x8b, 0xd8, 0x3c,
  0x0b, 0xb5, 0xac, 0xbd, 0x7b, 0x3e, 0x58, 0xbe, 0x16, 0x46, 0x99, 0xbd,
  0x28, 0x99, 0x4f, 0x3d, 0x88, 0xf6, 0x0b, 0xbe, 0xee, 0xac, 0x28, 0x3e,
  0x9b, 0x7b, 0x27, 0x3e, 0xa9, 0x62, 0x76, 0xbe, 0x77, 0xc9, 0x39, 0xbe,
  0x90, 0xc7, 0x6f, 0xbe, 0x4f, 0x1b, 0x77, 0xbc, 0xc8, 0x98, 0x23, 0xbe,
  0xa5, 0x4d, 0x19, 0x3e, 0x47, 0xc3, 0xeb, 0x3c, 0xe2, 0xb5, 0x12, 0x3e,
  0x7a, 0xb3, 0x84, 0x3e, 0x9f, 0xb6, 0x0a, 0x3e, 0x4d, 0xdb, 0x67, 0x3e,
  0xd3, 0xc7, 0xdb, 0xbc, 0x63, 0xad, 0xb1, 0x3d, 0x93, 0xb8, 0x45, 0xbe,
  0x15, 0x45, 0x18, 0x3e, 0xc8, 0xd5, 0x03, 0xbd, 0x77, 0x52, 0x12, 0x3e,
  0xd2, 0x07, 0x57, 0xbe, 0x23, 0x00, 0x52, 0xbe, 0xf0, 0xd3, 0x6d, 0x3d,
  0xa0, 0xfc, 0x55, 0x3e, 0x2e, 0x80, 0x55, 0xbe, 0x98, 0xcb, 0x80, 0xbe,
  0x7c, 0x02, 0xb4, 0xbe, 0x4a, 0xc0, 0x23, 0x3e, 0x33, 0x45, 0x57, 0xbe,
  0xf5, 0x57, 0x98, 0x3b, 0xb9, 0x49, 0x24, 0xbd, 0x23, 0xa0, 0xb3, 0x3d,
  0x93, 0x0a, 0x19, 0xbe, 0xda, 0x81, 0x57, 0x3f, 0x9e, 0x59, 0x60, 0xbd,
  0xfc, 0x9d, 0x34, 0xbd, 0xf1, 0xd3, 0x78, 0x3c, 0xa6, 0xbb, 0x08, 0xbd,
  0x0e, 0x09, 0x4a, 0x3e, 0x27, 0x36, 0xb2, 0x3d, 0x27, 0x3d, 0xe7, 0xbe,
  0xf7, 0x49, 0x85, 0x3e, 0x40, 0xa6, 0x47, 0xbf, 0x57, 0xc4, 0x1d, 0x3e,
  0xd6, 0x36, 0xe9, 0xbc, 0x1b, 0x81, 0x89, 0xbe, 0xd7, 0xc9, 0x9e, 0xbd,
  0xe6, 0x1e, 0x1f, 0xbf, 0x86, 0xef, 0xec, 0xbd, 0xaa, 0xcf, 0x46, 0x3f,
  0x59, 0x20, 0x57, 0xbd, 0x0c, 0x6d, 0x8c, 0xbd, 0xfb, 0x0b, 0xa7, 0xbd,
  0xa0, 0xe2, 0xb6, 0xbe, 0x8a, 0xd8, 0xb9, 0xbe, 0x2a, 0x53, 0x9e, 0x3d,
  0xec, 0xd6, 0xd7, 0xbe, 0xc3, 0xd0, 0xb4, 0xbe, 0x0e, 0x67, 0x35, 0xbf,
  0xe0, 0x85, 0x8a, 0x3e, 0x40, 0xed, 0xee, 0xbd, 0x53, 0xe6, 0xb7, 0xbe,
  0x58, 0x48, 0xf9, 0x3b, 0xd6, 0x77, 0x00, 0xbe, 0x4f, 0x66, 0x90, 0xbd,
  0x8e, 0xe8, 0x5e, 0x3f, 0xfd, 0x9f, 0x17, 0xbe, 0xb6, 0x95, 0xdf, 0xbd,
  0xa4, 0x00, 0x5c, 0x3e, 0x44, 0x22, 0x6e, 0xbe, 0xb4, 0xf9, 0x09, 0xbe,
  0xbe, 0x1b, 0x03, 0xbd, 0x8f, 0x49, 0x5e, 0x3e, 0x13, 0x1d, 0xa3, 0xbc,
  0xed, 0x95, 0x9e, 0xbe, 0x5e, 0x86, 0xb9, 0x3d, 0x86, 0x50, 0x3c, 0xbe,
  0x2d, 0x8f, 0x3f, 0xbe, 0xcf, 0x84, 0x91, 0x3b, 0xb2, 0x95, 0x49, 0xbe,
  0x56, 0xfd, 0x22, 0x3e, 0x82, 0x13, 0xe1, 0x3e, 0x29, 0xaa, 0x5b, 0xbd,
  0x3b, 0x0e, 0x12, 0xbe, 0xf2, 0x76, 0x7f, 0x3e, 0xbc, 0x00, 0x00, 0xbf,
  0xb3, 0x36, 0x03, 0xbf, 0x9a, 0x41, 0x17, 0xbe, 0x9e, 0x64, 0xea, 0x3d,
  0xce, 0xf4, 0xe0, 0x3d, 0xf8, 0xb2, 0xb3, 0x3d, 0x46, 0x1f, 0xed, 0xbc,
  0x3b, 0x71, 0xa2, 0x3c, 0x4f, 0xac, 0x49, 0x3e, 0xf5, 0x94, 0xf6, 0xbc,
  0xbe, 0x82, 0x31, 0x3c, 0xbd, 0x6b, 0x16, 0x3e, 0xd9, 0x84, 0xc2, 0xbd,
  0xf0, 0x7a, 0xa7, 0xbb, 0xc7, 0x27, 0xdc, 0xbd, 0x81, 0x9c, 0x19, 0x3e,
  0x81, 0x3d, 0x82, 0x3b, 0x69, 0x77, 0x35, 0xbd, 0x2d, 0xe8, 0xa3, 0xbd,
  0x70, 0xe6, 0xbd, 0x3d, 0xbf, 0xc3, 0xbf, 0xbb, 0x9b, 0x08, 0x8a, 0x3d,
  0xc9, 0x32, 0x99, 0xbe, 0x1a, 0xef, 0xd5, 0x3c, 0xf9, 0x62, 0x37, 0x3d,
  0x9c, 0x84, 0x93, 0x3d, 0x83, 0x4f, 0x93, 0x3d, 0xb7, 0x9c, 0x50, 0xbe,
  0x0d, 0x42, 0x3b, 0x3e, 0xe7, 0x56, 0x6d, 0xbd, 0x07, 0x73, 0x68, 0x3d,
  0xac, 0x40, 0x49, 0xbe, 0x4d, 0x1e, 0x2e, 0x3d, 0x02, 0x5a, 0x35, 0x3e,
  0x60, 0x60, 0xc9, 0x3d, 0xf1, 0x4d, 0x08, 0xbd, 0x9e, 0x3f, 0xb2, 0x3e,
  0x75, 0x36, 0xa0, 0xbc, 0xad, 0xba, 0x42, 0xbd, 0xa1, 0x7e, 0x87, 0xbe,
  0x94, 0x11, 0x0c, 0xbe, 0x5d, 0xcd, 0xbe, 0xbe, 0xb8, 0x18, 0x8e, 0x3d,
  0xdd, 0xa2, 0x57, 0xbe, 0x80, 0x68, 0xac, 0xbd, 0xae, 0x25, 0x25, 0xbe,
  0x36, 0xcd, 0xf8, 0x3b, 0x1d, 0x16, 0x19, 0xbe, 0xa0, 0xda, 0x51, 0xbe,
  0xcb, 0x06, 0x8a, 0x3e, 0x89, 0x65, 0x46, 0xbd, 0xd9, 0x88, 0x94, 0x3e,
  0x11, 0xb3, 0x82, 0x3e, 0x24, 0x21, 0x4b, 0x3e, 0x38, 0x99, 0x42, 0xbe,
  0x50, 0xe1, 0x4a, 0xbe, 0x2a, 0x93, 0xb1, 0xbd, 0xd0, 0x7b, 0xa6, 0xbe,
  0x93, 0x3c, 0xa6, 0x3e, 0xac, 0x9f, 0xc7, 0xbd, 0x92, 0x06, 0x38, 0xbe,
  0xbf, 0xa9, 0x7d, 0xbc, 0xf3, 0x6f, 0x07, 0x3b, 0xf1, 0xb3, 0xce, 0x3c,
  0x3b, 0xbb, 0x82, 0xbd, 0x5d, 0x09, 0x4f, 0x3e, 0xb8, 0x98, 0x18, 0xbe,
  0x24, 0x72, 0xab, 0x3e, 0xa4, 0x90, 0xde, 0x3d, 0x5d, 0xdf, 0xa9, 0x3e,
  0x65, 0x0a, 0x59, 0xbe, 0xad, 0x0f, 0x11, 0xbe, 0xb5, 0xb1, 0x2a, 0xbe,
  0x3b, 0x3f, 0xcb, 0xbe, 0xb2, 0xb3, 0xa6, 0x3e, 0x05, 0x6e, 0x3a, 0x3d,
  0xd4, 0x80, 0x18, 0xbe, 0x7c, 0x94, 0x03, 0x3d, 0xe1, 0x3c, 0x9d, 0x3d,
  0x36, 0x4d, 0x97, 0xbd, 0x68, 0xb0, 0x95, 0x3d, 0x12, 0xee, 0x0a, 0x3e,
  0x23, 0x33, 0xf7, 0x3c, 0x0e, 0xaf, 0xa3, 0xbd, 0x60, 0x82, 0x33, 0x3e,
  0x90, 0x34, 0x08, 0x3e, 0x94, 0xa6, 0x73, 0xbd, 0x32, 0x44, 0x57, 0xbe,
  0xc0, 0xe5, 0x6c, 0x3c, 0xf1, 0xe2, 0xca, 0xbe, 0x3d, 0x2a, 0xaa, 0x3e,
  0xb3, 0x79, 0x94, 0xbe, 0xa1, 0x81, 0x13, 0xbe, 0x41, 0x31, 0x78, 0x3d,
  0xd6, 0x35, 0x1e, 0x3e, 0x14, 0xba, 0x90, 0xbc, 0xde, 0x34, 0x5c, 0x3c,
  0x83, 0xc9, 0x27, 0x3e, 0xa6, 0x2c, 0x5a, 0x3e, 0x9c, 0x01, 0x66, 0x3e,
  0x68, 0x48, 0x41, 0x3e, 0x58, 0xba, 0x84, 0x3e, 0x48, 0xc8, 0x1f, 0xbe,
  0xce, 0x7a, 0xbb, 0xbe, 0xaa, 0xdf, 0xb2, 0xbd, 0x6d, 0xf5, 0xc0, 0xbe,
  0xc7, 0xc5, 0x79, 0x3e, 0xf7, 0x98, 0x72, 0xbe, 0x79, 0x13, 0x16, 0x3e,
  0xc6, 0x48, 0xe3, 0xbc, 0x25, 0x8d, 0x6b, 0xbd, 0x85, 0x01, 0x5c, 0xbd,
  0x5c, 0x94, 0x9a, 0xbb, 0xd8, 0x43, 0x62, 0x3e, 0x4e, 0xb9, 0xa8, 0xbe,
  0x0c, 0xb6, 0x8d, 0x3e, 0x6c, 0x31, 0x83, 0x3e, 0x36, 0x06, 0x33, 0x3d,
  0x62, 0x31, 0x12, 0x3e, 0x0e, 0xd7, 0x26, 0xbe, 0x7e, 0x34, 0x8a, 0xbe,
  0x06, 0xd0, 0xce, 0xbe, 0x58, 0xac, 0xe3, 0xbd, 0x3c, 0xc1, 0xa3, 0xbe,
  0x41, 0xd9, 0xdc, 0x3c, 0x46, 0xfa, 0x41, 0xbd, 0xe2, 0x8b, 0xf5, 0xbd,
  0x1c, 0x39, 0x9d, 0xbd, 0x74, 0xa0, 0x2a, 0xbe, 0x65, 0x4a, 0xb3, 0x3c,
  0x43, 0x93, 0xad, 0xbc, 0xfe, 0x63, 0x60, 0xbd, 0x74, 0x1d, 0x31, 0xbe,
  0x88, 0xb5, 0x1c, 0x3d, 0x5d, 0x1d, 0x63, 0xbe, 0xfb, 0x35, 0xd2, 0xbd,
  0x06, 0x5d, 0x98, 0xbe, 0xbb, 0x94, 0x9a, 0xbd, 0x3d, 0x46, 0x95, 0x3e,
  0xd0, 0x19, 0xb7, 0x3c, 0xef, 0x43, 0x82, 0xbd, 0x34, 0x86, 0xbb, 0xbd,
  0x9f, 0xca, 0x3a, 0xbf, 0x4b, 0x8a, 0x8e, 0xbe, 0xc9, 0x1b, 0xe9, 0xbe,
  0x66, 0xad, 0xf3, 0xbe, 0x00, 0xf3, 0x6e, 0xbf, 0xc2, 0xcb, 0xa2, 0xbc,
  0x54, 0xa9, 0xcd, 0xbd, 0x5c, 0x24, 0x7c, 0x3c, 0x83, 0x69, 0x56, 0xbd,
  0x8e, 0x18, 0xf9, 0xbd, 0xaf, 0xcf, 0xf4, 0x3e, 0x76, 0x78, 0x20, 0xbe,
  0x23, 0x89, 0x46, 0x3e, 0xaa, 0xe6, 0x79, 0xbe, 0x4b, 0xf7, 0x03, 0x3e,
  0x0a, 0xbb, 0xd8, 0x3c, 0xa3, 0xb2, 0xbc, 0xbe, 0xfc, 0xee, 0xf9, 0xbe,
  0x27, 0x4f, 0xeb, 0x3d, 0xc4, 0x24, 0x80, 0x3d, 0x85, 0xb1, 0x07, 0xbf,
  0x5a, 0xf7, 0x33, 0xbe, 0x7f, 0x53, 0x12, 0xbe, 0x64, 0xa9, 0x15, 0xbf,
  0xd4, 0x9f, 0x44, 0x3d, 0xc1, 0x41, 0x98, 0xbd, 0xab, 0xa1, 0x5f, 0x3e,
  0xcd, 0x00, 0x34, 0xbd, 0x37, 0x99, 0xc2, 0xbe, 0x6b, 0x53, 0x82, 0xbe,
  0xda, 0xaa, 0x33, 0x3e, 0x2c, 0xc5, 0xc2, 0xbc, 0x04, 0x29, 0xdf, 0xbe,
  0x37, 0x5a, 0xa7, 0xbe, 0x69, 0xde, 0x4b, 0xbe, 0x52, 0xd3, 0x28, 0xbe,
  0x57, 0x65, 0x42, 0xbe, 0x32, 0x1e, 0xde, 0xbe, 0xfc, 0xf0, 0x9f, 0xbe,
  0x33, 0x7f, 0x0f, 0xbf, 0xc8, 0x83, 0x40, 0xbe, 0xa5, 0xc9, 0xdc, 0xbd,
  0x67, 0xf7, 0x86, 0xbd, 0xc4, 0x7a, 0xf6, 0x3a, 0x23, 0x2d, 0x0c, 0xbf,
  0xac, 0x1e, 0x80, 0xbe, 0xf0, 0x84, 0x90, 0x3c, 0xed, 0x5d, 0x89, 0xbd,
  0x52, 0xf1, 0x1f, 0xbe, 0x38, 0xa5, 0x92, 0x3d, 0xc9, 0x07, 0xf8, 0xbd,
  0xc5, 0xff, 0xca, 0xbe, 0x78, 0xa6, 0x04, 0xbf, 0x85, 0xfb, 0xc6, 0x3d,
  0xb1, 0x1a, 0x28, 0xbe, 0x52, 0x60, 0x3e, 0xbf, 0x2c, 0x3f, 0x2f, 0xbe,
  0xd1, 0xd0, 0x26, 0xbe, 0xf4, 0x07, 0xb7, 0xbe, 0x04, 0x10, 0x91, 0x3d,
  0x68, 0x5c, 0x07, 0xbe, 0x84, 0xf7, 0x8b, 0x3d, 0xb5, 0x11, 0x3a, 0xbe,
  0x3e, 0xe6, 0x1a, 0xbd, 0x8d, 0x28, 0x03, 0xbe, 0x15, 0x2b, 0x02, 0x3e,
  0x8f, 0x6a, 0xf8, 0xbe, 0xc5, 0x72, 0x19, 0xbe, 0x1d, 0xb5, 0x25, 0xbf,
  0x21, 0xc6, 0xc4, 0x3d, 0xee, 0x52, 0xda, 0x3d, 0xc8, 0xfc, 0xd9, 0x3d,
  0x0b, 0xc8, 0x5b, 0xbe, 0x9d, 0x14, 0x6b, 0x3c, 0x83, 0x69, 0xe7, 0xbd,
  0x15, 0xc0, 0x21, 0x3d, 0x40, 0x09, 0x29, 0x3e, 0x15, 0xb8, 0x08, 0x3e,
  0xd0, 0xfe, 0x38, 0xbc, 0x3b, 0x72, 0x10, 0x3d, 0x20, 0x1c, 0x9a, 0xbe,
  0xda, 0x79, 0x6c, 0x3e, 0x2e, 0x04, 0xcc, 0xbe, 0xa8, 0x60, 0x10, 0xbf,
  0x45, 0x05, 0xbe, 0xbd, 0x08, 0x1a, 0xf8, 0x3d, 0x38, 0xb7, 0xd1, 0x3d,
  0x00, 0x1a, 0xbf, 0x3d, 0x75, 0x89, 0x23, 0x3e, 0x8f, 0x13, 0x97, 0x3d,
  0x29, 0x1e, 0x60, 0x3e, 0xd8, 0xa2, 0x0b, 0xbe, 0x81, 0x92, 0xc0, 0xbc,
  0xe9, 0xa2, 0xa6, 0x3d, 0x13, 0xdd, 0xef, 0x3d, 0x30, 0x79, 0xf8, 0x3c,
  0x2a, 0xd3, 0xf7, 0xbd, 0xdb, 0xfa, 0xae, 0x3e, 0x37, 0x1c, 0x92, 0x3d,
  0xb0, 0x8d, 0x21, 0x3c, 0x0a, 0xc7, 0xe0, 0x3d, 0xa2, 0xaa, 0xf9, 0x3d,
  0x42, 0x0c, 0xda, 0xbd, 0xae, 0x4b, 0x77, 0x3d, 0x74, 0x37, 0x95, 0xbe,
  0x6b, 0x60, 0xdb, 0x3c, 0x1b, 0xb1, 0x8b, 0x3d, 0x45, 0x38, 0xcb, 0xbc,
  0xdf, 0x17, 0xb2, 0xbd, 0x5a, 0x80, 0x38, 0xbd, 0xcc, 0xde, 0x72, 0x3e,
  0x9b, 0x0f, 0x33, 0x3e, 0xda, 0x14, 0x34, 0xbe, 0xb7, 0x1e, 0x16, 0xbe,
  0xa5, 0x29, 0x46, 0x3e, 0xcf, 0x38, 0x15, 0x3d, 0x48, 0x8c, 0x81, 0xbe,
  0x16, 0x5f, 0x12, 0x3e, 0xea, 0xc1, 0x0b, 0xbe, 0x2c, 0x58, 0xca, 0x3d,
  0xed, 0x7d, 0xaf, 0xbd, 0xf5, 0xa5, 0x09, 0x3e, 0x4a, 0x35, 0x4a, 0x3e,
  0x04, 0x51, 0x5a, 0xbe, 0x11, 0x4b, 0x34, 0x3e, 0x17, 0x93, 0xae, 0xbc,
  0x66, 0xe5, 0xdf, 0xbd, 0x28, 0x54, 0x18, 0x3d, 0x73, 0xbc, 0xc3, 0x3d,
  0xe3, 0x82, 0xd4, 0x3d, 0xa3, 0x45, 0xf7, 0xbd, 0x75, 0x24, 0x93, 0xbc,
  0xe3, 0x18, 0x2a, 0x3d, 0xe9, 0x20, 0x0c, 0xbe, 0x55, 0xb0, 0x7e, 0xbe,
  0x8b, 0xdf, 0x8d, 0x3d, 0xf0, 0x6a, 0x4a, 0xbe, 0xd9, 0x8f, 0x50, 0xbd,
  0x93, 0x78, 0x60, 0x3e, 0xc1, 0x58, 0x43, 0x3d, 0x13, 0x64, 0xba, 0x3d,
  0xb4, 0xfa, 0x67, 0xbb, 0xa9, 0xae, 0x77, 0xbe, 0xfe, 0x1f, 0x0e, 0xbe,
  0x90, 0xb9, 0xc3, 0x3d, 0x28, 0x91, 0x35, 0xbe, 0x86, 0xec, 0x61, 0xbe,
  0xa1, 0x0a, 0x81, 0x3d, 0x10, 0x95, 0x24, 0x3e, 0xe2, 0x15, 0x76, 0xbe,
  0xec, 0x5a, 0x7d, 0x3d, 0xd6, 0xba, 0xa3, 0xbe, 0x14, 0x18, 0xda, 0x3a,
  0xb7, 0xa5, 0x8c, 0xbe, 0x5b, 0xcf, 0x67, 0x3e, 0x45, 0xbb, 0x75, 0xbb,
  0xce, 0x9d, 0x80, 0xbe, 0xbe, 0x17, 0x06, 0xbd, 0xd3, 0x76, 0x4d, 0xbd,
  0x57, 0x34, 0x6c, 0xbe, 0x0e, 0xbd, 0x89, 0x3d, 0x01, 0xcb, 0x99, 0x3e,
  0x78, 0xa2, 0xdb, 0xbd, 0xb0, 0xa3, 0x46, 0xbe, 0x39, 0x82, 0x3c, 0x3c,
  0xfa, 0x2c, 0x83, 0xbe, 0x04, 0x68, 0xc5, 0xbd, 0x7e, 0x75, 0xd1, 0xbe,
  0x91, 0x32, 0x9a, 0xbd, 0x91, 0x65, 0x8e, 0xbe, 0xc6, 0xa9, 0x9b, 0xbe,
  0x3b, 0x88, 0xfd, 0x3c, 0x4a, 0x21, 0x41, 0xbe, 0xdf, 0x7f, 0x98, 0xbc,
  0x52, 0xc2, 0x6d, 0x3d, 0xf5, 0xc0, 0x12, 0xbe, 0x5e, 0xc0, 0x44, 0x3e,
  0xa2, 0xfe, 0xb8, 0x3e, 0x4b, 0xa4, 0x2c, 0xbe, 0x16, 0x0f, 0x47, 0x3d,
  0x05, 0xc9, 0x9d, 0x3d, 0x37, 0xbe, 0xbc, 0x3c, 0x63, 0xba, 0x6b, 0xbd,
  0xbc, 0xb9, 0x57, 0xbc, 0x6c, 0x67, 0xc3, 0xbd, 0x73, 0xd5, 0x32, 0xbe,
  0x7e, 0x9e, 0x42, 0xbe, 0xb9, 0x2f, 0x68, 0x3d, 0x1d, 0xd7, 0xb0, 0x3d,
  0xa8, 0x63, 0x14, 0x3e, 0xbf, 0x93, 0x82, 0x3e, 0xa5, 0x42, 0xf4, 0x3b,
  0x4e, 0x85, 0x7e, 0xbe, 0xd1, 0x16, 0x15, 0xbd, 0xe9, 0x52, 0x65, 0x3e,
  0x9a, 0xe3, 0x0c, 0xbc, 0x10, 0x85, 0x1d, 0xbc, 0xca, 0xe1, 0x35, 0x3d,
  0xdf, 0xf5, 0xd6, 0xbd, 0x96, 0x27, 0x18, 0x3d, 0x68, 0xe0, 0x29, 0xbd,
  0x20, 0x41, 0x07, 0x3e, 0x44, 0x50, 0xae, 0x3e, 0x1c, 0xba, 0x03, 0xbc,
  0x5a, 0x4c, 0x20, 0x3d, 0x44, 0x10, 0xd4, 0xbc, 0xc4, 0x97, 0x61, 0xbd,
  0xc3, 0x04, 0x05, 0xbe, 0xac, 0x03, 0xd4, 0x3b, 0xd2, 0x10, 0x91, 0xbe,
  0x2d, 0x20, 0x5d, 0xbd, 0xff, 0x62, 0x54, 0xbc, 0x5b, 0x2c, 0x03, 0x3d,
  0x6b, 0x41, 0x23, 0xbd, 0x37, 0x3e, 0x00, 0x3b, 0xab, 0x05, 0x0d, 0x3e,
  0x12, 0x01, 0x5d, 0xbe, 0x33, 0xc7, 0x1c, 0xbe, 0x50, 0x60, 0x4b, 0x3e,
  0xd9, 0xf4, 0xba, 0x3b, 0x41, 0x3f, 0x53, 0xbe, 0x96, 0x8d, 0x89, 0xbe,
  0x40, 0x50, 0xd2, 0xbd, 0x29, 0x3e, 0x95, 0xbe, 0xb3, 0x12, 0xb2, 0x3d,
  0x14, 0x85, 0xfe, 0xbe, 0x61, 0x33, 0x40, 0x3e, 0x7e, 0x34, 0x45, 0x3e,
  0x2a, 0xab, 0x75, 0xbe, 0x13, 0x52, 0x61, 0xbe, 0x6b, 0xbb, 0xc3, 0xbe,
  0xa3, 0x53, 0xb0, 0xbe, 0x5a, 0x0a, 0xf2, 0xbd, 0xb3, 0x0e, 0x6b, 0xbd,
  0xc8, 0xf4, 0x0d, 0x3e, 0x84, 0xe0, 0xd9, 0xbe, 0xd0, 0x12, 0x31, 0xbf,
  0xe1, 0x32, 0x68, 0x3e, 0x4f, 0xe4, 0xd0, 0xbd, 0xef, 0x27, 0xf0, 0xbc,
  0xa0, 0xc3, 0x04, 0x3d, 0x88, 0x08, 0x8c, 0xbe, 0xfa, 0x40, 0x26, 0x3c,
  0x7a, 0x0b, 0x25, 0x3d, 0x67, 0x5d, 0xf2, 0xbe, 0x8e, 0x70, 0x55, 0xbe,
  0x59, 0x89, 0xc7, 0xbe, 0x7d, 0x04, 0x6a, 0x3d, 0xc3, 0xef, 0x48, 0xbe,
  0xf0, 0x1c, 0x3c, 0x3e, 0x42, 0xec, 0x0e, 0x3f, 0xe0, 0x04, 0xe8, 0x3d,
  0x96, 0x7d, 0x58, 0xbe, 0xb3, 0x2a, 0xd9, 0x3c, 0x25, 0xdf, 0x96, 0xbd,
  0x7c, 0x8e, 0x8f, 0xbe, 0xc6, 0xee, 0x9d, 0x3c, 0xd5, 0x87, 0xcb, 0xbe,
  0x63, 0xfb, 0xb8, 0xbd, 0x72, 0xa8, 0x91, 0xbe, 0x06, 0x62, 0xf6, 0xbc,
  0x5d, 0x7e, 0x55, 0xbe, 0xc5, 0x3b, 0xec, 0xbd, 0xf6, 0x5c, 0xa9, 0xbd,
  0x23, 0xad, 0x47, 0xbe, 0xc3, 0x28, 0x0e, 0xbd, 0x30, 0xf7, 0x97, 0x3e,
  0x49, 0x6f, 0xa0, 0x3d, 0x6d, 0x7f, 0x82, 0xbe, 0x49, 0x7a, 0x70, 0x3d,
  0xd7, 0xa0, 0xcd, 0xbd, 0xfe, 0xe2, 0xb6, 0xbe, 0x41, 0xc1, 0x15, 0xbd,
  0xc2, 0xa4, 0xce, 0xbe, 0x88, 0xfe, 0xf7, 0xbd, 0xce, 0x74, 0xc7, 0xbe,
  0x7c, 0x9e, 0xa5, 0x3d, 0xca, 0x10, 0xb9, 0xbe, 0x34, 0x3b, 0x43, 0xbe,
  0x1e, 0x90, 0xf5, 0xbd, 0xc6, 0x61, 0x32, 0x3e, 0x6e, 0x6b, 0xce, 0xbc,
  0xff, 0x56, 0x69, 0x3e, 0xdf, 0xe8, 0xc7, 0x3c, 0x5a, 0x76, 0x6a, 0xbe,
  0x49, 0x82, 0x98, 0xbd, 0x2f, 0xaa, 0x14, 0x3e, 0xe0, 0xbb, 0x90, 0xbe,
  0x46, 0x31, 0x7f, 0x3d, 0xbc, 0x8b, 0x7e, 0xbe, 0x9c, 0xda, 0x0c, 0xbd,
  0x19, 0x63, 0x90, 0x3e, 0x75, 0xf5, 0xd3, 0x3a, 0xc9, 0xea, 0xbf, 0xbe,
  0x0a, 0x5d, 0x6d, 0xbd, 0x05, 0xb0, 0xa9, 0xbe, 0x29, 0xe1, 0x63, 0xba,
  0x6c, 0xe3, 0x35, 0xbd, 0xf0, 0x73, 0x55, 0xbe, 0xf0, 0x9f, 0xab, 0x3d,
  0xc9, 0x03, 0x20, 0xbe, 0x9e, 0x18, 0x2d, 0x3d, 0x7a, 0xe7, 0x21, 0xbe,
  0xb8, 0x1f, 0x00, 0xbe, 0xb9, 0x06, 0x3a, 0x3e, 0x29, 0xb8, 0x37, 0x3e,
  0x2b, 0x4c, 0xec, 0x3d, 0xb3, 0x01, 0xe1, 0x3e, 0xfe, 0x00, 0xf4, 0xbc,
  0x6a, 0x74, 0xe3, 0xbd, 0x85, 0x63, 0x8a, 0xbe, 0x02, 0x41, 0x8f, 0xbe,
  0x08, 0x19, 0x55, 0x3d, 0x94, 0x66, 0x3a, 0x3d, 0x42, 0x5e, 0x96, 0x3d,
  0xe7, 0x62, 0xf0, 0xbc, 0x91, 0x03, 0x52, 0xbe, 0xee, 0x87, 0xf0, 0xbd,
  0xf0, 0x89, 0x61, 0xbd, 0x0c, 0xa4, 0x31, 0x3d, 0xc6, 0x80, 0x4c, 0xbd,
  0xd6, 0xbd, 0x6b, 0x3e, 0x19, 0xb9, 0xac, 0x3d, 0xf5, 0xb1, 0x26, 0x3e,
  0xb2, 0x5e, 0xfe, 0xbd, 0x21, 0xd1, 0x65, 0x3d, 0x58, 0x6f, 0xf0, 0xbe,
  0xcf, 0x10, 0xf8, 0x3d, 0x73, 0xa6, 0x13, 0xbc, 0x75, 0xaf, 0xb0, 0x3d,
  0x60, 0x5a, 0x86, 0x3c, 0x3f, 0x8c, 0x62, 0xbe, 0x3f, 0x09, 0x84, 0xbe,
  0x7a, 0x1a, 0xea, 0x3d, 0x93, 0x65, 0x3a, 0x3e, 0xa8, 0xb3, 0xf2, 0xbe,
  0x0c, 0xb0, 0x9d, 0x3d, 0xb7, 0xfb, 0x02, 0xbd, 0x8a, 0x2a, 0xf1, 0xbd,
  0x8a, 0xbe, 0xa5, 0xbe, 0x7d, 0x57, 0xc6, 0x3d, 0xa9, 0x25, 0x37, 0xbd,
  0xee, 0x1e, 0xe3, 0x3d, 0xed, 0x47, 0xac, 0x3c, 0x3d, 0x39, 0x2f, 0x3e,
  0x8f, 0x7b, 0x14, 0xbe, 0x06, 0x41, 0x1b, 0xbe, 0x8b, 0x8c, 0x69, 0x3e,
  0x8b, 0x9a, 0x22, 0x3c, 0xae, 0xb0, 0xef, 0xbc, 0x56, 0x82, 0xb7, 0x3d,
  0x57, 0x04, 0xf4, 0xbd, 0x69, 0x9e, 0x17, 0x3e, 0x80, 0x7e, 0x39, 0x3b,
  0x6d, 0x47, 0x3e, 0x3e, 0x32, 0x10, 0x83, 0xbe, 0x2b, 0x88, 0x0b, 0x3e,
  0x6b, 0xd5, 0x3c, 0xbd, 0x26, 0x0d, 0x08, 0xbe, 0x8a, 0x2e, 0x8a, 0xbc,
  0x5f, 0xbd, 0xc2, 0x3d, 0x01, 0x33, 0xef, 0xbe, 0x85, 0x17, 0x2f, 0xbe,
  0x3b, 0xe1, 0x14, 0x3d, 0x50, 0xce, 0x52, 0x3d, 0x35, 0x0c, 0x9f, 0x3c,
  0xa9, 0x40, 0x1b, 0x3d, 0x1e, 0x71, 0x59, 0xbd, 0xef, 0x6f, 0x05, 0xbd,
  0x83, 0x28, 0x11, 0xbd, 0xa1, 0x49, 0x95, 0x3d, 0xfd, 0xbe, 0xff, 0x3c,
  0x9d, 0x72, 0xe9, 0x3d, 0x32, 0xc8, 0xdd, 0xbc, 0x00, 0xb7, 0xf8, 0x3d,
  0x7b, 0x69, 0x67, 0xbe, 0x96, 0x3e, 0x0d, 0x3e, 0x54, 0x23, 0xd8, 0xbe,
  0x53, 0x68, 0x09, 0x3e, 0x08, 0xb5, 0x76, 0xbb, 0xbc, 0xcf, 0x6a, 0x3e,
  0xd6, 0x47, 0x5e, 0x3a, 0x8a, 0xa4, 0x7f, 0x3e, 0xb1, 0x0a, 0xc2, 0xbd,
  0x33, 0x2d, 0x04, 0xbe, 0xb3, 0xe5, 0x25, 0x3d, 0xd5, 0x99, 0x20, 0x3e,
  0x51, 0x37, 0x42, 0x3d, 0xb9, 0x1d, 0x11, 0x3e, 0x8c, 0x5f, 0x35, 0xbe,
  0x93, 0xcc, 0x2c, 0xbd, 0xec, 0xef, 0xfe, 0xbc, 0x33, 0x2e, 0x46, 0xbc,
  0xce, 0xf0, 0xc5, 0xbe, 0x38, 0xbe, 0x86, 0x3d, 0xc8, 0xc4, 0xb3, 0x3d,
  0x19, 0xaa, 0xaf, 0x3c, 0x9d, 0x31, 0xe2, 0x3c, 0xa9, 0xa3, 0x0f, 0x3d,
  0x65, 0xca, 0xa5, 0xbd, 0x92, 0x92, 0xd7, 0xbc, 0xa6, 0x17, 0x8d, 0x3d,
  0x7e, 0x40, 0x41, 0x3e, 0x7b, 0x91, 0xa1, 0x3d, 0xc8, 0x9c, 0x52, 0x3d,
  0x9a, 0x67, 0xb6, 0xbe, 0xe3, 0x45, 0xc4, 0x3c, 0x46, 0x90, 0x34, 0xbe,
  0xb6, 0x2f, 0x70, 0x3e, 0xe9, 0x51, 0xc2, 0x3d, 0x54, 0x83, 0x9a, 0x3e,
  0x3a, 0x28, 0x51, 0xbe, 0x99, 0xad, 0xab, 0xbd, 0xae, 0x2f, 0xe9, 0xbd,
  0x82, 0x36, 0x53, 0x3e, 0xd2, 0x67, 0x55, 0xbe, 0xb1, 0x40, 0xe6, 0xbd,
  0xb7, 0xb3, 0x11, 0x3d, 0xa6, 0x30, 0x81, 0x3e, 0x5f, 0x4f, 0x19, 0xbe,
  0xf0, 0xe2, 0xd6, 0x3c, 0xa0, 0xdb, 0x17, 0xbe, 0x86, 0x6f, 0xc6, 0xbb,
  0x43, 0xb0, 0x97, 0xbe, 0x33, 0xf3, 0x0f, 0x3e, 0xd9, 0x5c, 0x8c, 0xbe,
  0x3f, 0x16, 0xe2, 0x3d, 0x40, 0x53, 0x11, 0xbe, 0x69, 0x96, 0xac, 0xbd,
  0x09, 0x70, 0x93, 0x3d, 0x8b, 0xc2, 0x82, 0x3d, 0xad, 0xc9, 0x76, 0xbe,
  0x31, 0xcb, 0xba, 0xbe, 0x9c, 0xb5, 0x5e, 0x3e, 0x12, 0x37, 0x80, 0xbc,
  0x27, 0x98, 0xd3, 0xbd, 0xdb, 0x11, 0xe7, 0x3c, 0x25, 0xa0, 0xab, 0xbd,
  0x55, 0x05, 0x26, 0x3d, 0xdf, 0x31, 0xc6, 0xbe, 0x9d, 0x56, 0x8d, 0x3e,
  0xb7, 0x1b, 0x0f, 0xbe, 0xb3, 0x9d, 0xf9, 0xbd, 0x1d, 0x7b, 0xc1, 0xbd,
  0xfd, 0x7b, 0xd4, 0xbd, 0x61, 0xaf, 0x76, 0xbe, 0x00, 0x5f, 0x7a, 0xbc,
  0x86, 0xe0, 0xbe, 0xbe, 0xd6, 0x6f, 0x41, 0xbe, 0xa5, 0x25, 0x92, 0xbd,
  0x95, 0x9b, 0x8f, 0xbe, 0x84, 0x72, 0x83, 0x3d, 0xf5, 0x2d, 0x81, 0xbc,
  0x89, 0x7d, 0xa0, 0xbe, 0x9f, 0x25, 0xe8, 0x3d, 0xdd, 0x56, 0x29, 0xbd,
  0x91, 0x12, 0xbb, 0xbc, 0x18, 0x33, 0x15, 0xbe, 0xca, 0x50, 0x18, 0x3d,
  0xfc, 0xa1, 0xda, 0xbd, 0x4c, 0xb8, 0x59, 0xbe, 0x48, 0xf6, 0x6e, 0xbe,
  0xcc, 0xf9, 0x5f, 0x3d, 0xfa, 0x90, 0x10, 0xbe, 0x34, 0xcc, 0x7e, 0xbe,
  0xb3, 0x20, 0x1e, 0x3e, 0x6a, 0x49, 0xd6, 0xbd, 0x98, 0x24, 0xe0, 0xbd,
  0x33, 0x1d, 0x11, 0xbe, 0x30, 0x68, 0xc4, 0x3d, 0xff, 0xe9, 0xed, 0xbc,
  0xfa, 0xf8, 0x59, 0xbe, 0xab, 0xa0, 0xb5, 0x3d, 0x37, 0x67, 0x05, 0xbf,
  0xcf, 0x81, 0xcf, 0xbd, 0x4f, 0x05, 0x73, 0xbd, 0x8e, 0x9c, 0x1d, 0xbd,
  0xb2, 0x31, 0x73, 0x3d, 0x38, 0x42, 0x34, 0xbe, 0x79, 0xcb, 0xd1, 0xbd,
  0x06, 0x83, 0x33, 0xbe, 0x4c, 0xad, 0xc5, 0x3d, 0x1a, 0x5f, 0x88, 0xbe,
  0xa7, 0xc8, 0x78, 0xbc, 0xe0, 0x0f, 0x14, 0xbe, 0xb2, 0xc0, 0x35, 0xbe,
  0x2c, 0x79, 0xf5, 0x3d, 0xc6, 0x3c, 0x0f, 0x3e, 0x9e, 0x62, 0x72, 0x3d,
  0x64, 0xfb, 0x49, 0xbe, 0xf1, 0x8e, 0x00, 0x3c, 0xad, 0x0c, 0x75, 0xbe,
  0xbf, 0xbe, 0x50, 0xbe, 0xd6, 0xc5, 0x3e, 0xbe, 0x6a, 0xc6, 0xa8, 0x3d,
  0xdb, 0x6d, 0x71, 0xbe, 0x5a, 0xf5, 0xe7, 0xbc, 0x6f, 0x71, 0x2a, 0x3e,
  0x89, 0x1e, 0x64, 0xbe, 0xc2, 0x12, 0x32, 0xbe, 0xcc, 0xb7, 0xa5, 0xba,
  0x7b, 0x7d, 0x48, 0x3d, 0x85, 0x48, 0x42, 0xbe, 0xec, 0x93, 0xc0, 0xbd,
  0x6e, 0x8d, 0x35, 0x3e, 0x19, 0x0e, 0xd9, 0xbe, 0x5d, 0x40, 0x26, 0xbd,
  0x1b, 0x3d, 0xb7, 0x3d, 0x73, 0x6f, 0x97, 0xbd, 0x41, 0x4c, 0x7b, 0x3d,
  0x32, 0x67, 0xac, 0x3d, 0x90, 0x2e, 0x9f, 0xbc, 0x94, 0x74, 0x84, 0xbb,
  0xd7, 0x6b, 0x87, 0x3d, 0x40, 0x77, 0x82, 0xbc, 0x25, 0x63, 0x13, 0x3e,
  0x95, 0x9e, 0x87, 0x3e, 0x07, 0x3b, 0x92, 0x3d, 0x79, 0x1f, 0x7f, 0x3d,
  0xa4, 0x67, 0x85, 0xbd, 0x6d, 0xb7, 0x09, 0xbc, 0x01, 0xbd, 0x82, 0xbe,
  0xcb, 0x71, 0x44, 0x3d, 0x0f, 0x0a, 0x95, 0xbe, 0xf8, 0x85, 0x33, 0x3e,
  0x5a, 0x84, 0x37, 0xbe, 0x07, 0xbb, 0x4b, 0xbe, 0x59, 0x10, 0xf4, 0xbd,
  0x67, 0x78, 0x11, 0xbe, 0xd8, 0x2c, 0x59, 0xbe, 0x41, 0x59, 0x2b, 0xbe,
  0xd6, 0x47, 0x1d, 0x3d, 0x81, 0xbb, 0x53, 0x3d, 0x79, 0xf4, 0xd7, 0xbb,
  0xf5, 0x95, 0x20, 0xbe, 0x08, 0x97, 0xbc, 0x3d, 0xa4, 0x96, 0xb9, 0x3d,
  0xc2, 0xc2, 0x29, 0xbe, 0x7f, 0x28, 0xc7, 0xbd, 0x75, 0x69, 0x11, 0xbd,
  0x9a, 0x24, 0x00, 0xbe, 0x3f, 0x45, 0xb6, 0xbd, 0xa3, 0x11, 0x21, 0xbe,
  0x96, 0xb3, 0xbd, 0xbe, 0x45, 0x25, 0x67, 0xbc, 0x75, 0xff, 0x47, 0xbe,
  0xf1, 0x70, 0x3e, 0xbe, 0x3c, 0x8c, 0xc2, 0x3b, 0x55, 0x14, 0x38, 0xbe,
  0x03, 0x7a, 0x3c, 0x3c, 0x80, 0x5f, 0x0f, 0xbe, 0xc8, 0xab, 0xe2, 0x3d,
  0x27, 0x8d, 0x7a, 0xbd, 0x1e, 0xcc, 0x80, 0xbe, 0x47, 0xa4, 0x9a, 0xbd,
  0x3d, 0xa2, 0x82, 0xbb, 0x3e, 0x5e, 0xb9, 0xbe, 0xb2, 0x36, 0xfb, 0x3d,
  0x7c, 0xa4, 0x42, 0xbe, 0x6a, 0x7a, 0x7b, 0x3d, 0x86, 0xd7, 0x1c, 0xbe,
  0x42, 0xed, 0x70, 0x3e, 0xd9, 0xc4, 0x1d, 0xbe, 0x7e, 0xef, 0x99, 0xbe,
  0x48, 0x13, 0xb4, 0xbd, 0x5e, 0xac, 0x1d, 0x3e, 0x59, 0x58, 0xe9, 0xbe,
  0x52, 0x85, 0x86, 0x3d, 0x64, 0xfd, 0xdb, 0x3d, 0x02, 0x74, 0xeb, 0x3d,
  0xb3, 0x54, 0xa8, 0x3b, 0x7e, 0x88, 0x93, 0x3d, 0xbe, 0x71, 0x4b, 0x3c,
  0xc3, 0xcc, 0xf2, 0xbd, 0xe2, 0x00, 0xd8, 0xbe, 0xb6, 0x06, 0x4e, 0x3d,
  0xbd, 0xc0, 0xfb, 0xbd, 0x33, 0x2b, 0x1f, 0x3e, 0x09, 0xe4, 0x89, 0x3c,
  0xd2, 0x2b, 0xeb, 0xbd, 0x8a, 0x00, 0x35, 0x3e, 0x35, 0x93, 0x19, 0xbe,
  0x3d, 0xbd, 0x58, 0xbe, 0x1f, 0x72, 0x35, 0xbe, 0x1b, 0xed, 0x42, 0x3d,
  0xb5, 0xb4, 0x05, 0xbd, 0x8e, 0xe9, 0x82, 0xbd, 0xf5, 0xaf, 0x13, 0x3d,
  0x6b, 0x67, 0xfe, 0xbe, 0xfd, 0x8c, 0xeb, 0xbd, 0xec, 0xc2, 0x43, 0xbe,
  0x72, 0x94, 0x89, 0x3d, 0x59, 0xed, 0x6b, 0x3d, 0x1b, 0xf9, 0x9a, 0x3e,
  0x7b, 0x7d, 0x74, 0x3e, 0x94, 0xa0, 0x61, 0xbe, 0x06, 0xc4, 0xad, 0xbc,
  0x3d, 0x4f, 0x75, 0xbe, 0x6e, 0x7d, 0xe5, 0xbe, 0x1b, 0x8c, 0x06, 0xbe,
  0xc9, 0xaa, 0xb1, 0x3e, 0x46, 0xc3, 0x0d, 0x3d, 0xde, 0x48, 0xbf, 0xbd,
  0x51, 0x8b, 0xd8, 0xbc, 0x79, 0x89, 0x65, 0xbe, 0x03, 0x5c, 0x23, 0xbe,
  0xf0, 0x23, 0xd1, 0xbe, 0x25, 0x17, 0x7a, 0x3d, 0x48, 0xf7, 0x81, 0xbe,
  0x73, 0xa6, 0x9d, 0x3e, 0xc9, 0x77, 0xe7, 0x3d, 0x08, 0xdf, 0x85, 0xbe,
  0x16, 0xb5, 0x23, 0x3d, 0xe4, 0xd9, 0xdf, 0xbd, 0xf7, 0x70, 0x0d, 0xbe,
  0xb4, 0x8a, 0x3e, 0xbe, 0xed, 0x15, 0x00, 0xbd, 0x1e, 0xcf, 0x46, 0xbd,
  0xd8, 0x94, 0x46, 0xbd, 0x1b, 0x8f, 0x90, 0xba, 0x5d, 0x08, 0xa6, 0xbe,
  0xfe, 0xf4, 0x86, 0x3c, 0xc0, 0xaa, 0xa8, 0xbe, 0xb0, 0xb0, 0x2d, 0x3c,
  0xe3, 0x66, 0x0c, 0xbe, 0x35, 0xae, 0xb2, 0x3e, 0xe2, 0xd1, 0xea, 0x3d,
  0x8e, 0xa4, 0xc7, 0xbe, 0x0a, 0xc6, 0x81, 0xbe, 0x73, 0x39, 0xa0, 0x3c,
  0x17, 0x09, 0xf0, 0xbd, 0xcf, 0xc7, 0x22, 0xbc, 0x84, 0x54, 0xa0, 0xbe,
  0xbb, 0x9e, 0x8c, 0x3d, 0x04, 0x73, 0x12, 0x3e, 0x47, 0xa9, 0x39, 0xbc,
  0xf5, 0x26, 0x56, 0xbd, 0xbe, 0x2d, 0x4d, 0xbc, 0xdc, 0xfc, 0x9c, 0xbe,
  0x19, 0xd9, 0x79, 0x3d, 0x22, 0x60, 0xce, 0xbe, 0xd8, 0xb0, 0xb8, 0x3e,
  0x6b, 0x82, 0x25, 0xbd, 0x86, 0xb0, 0xf3, 0xbe, 0x1f, 0xdf, 0x19, 0xbe,
  0xfc, 0x01, 0xbd, 0x3d, 0x7d, 0xb9, 0x70, 0xbe, 0x4f, 0x24, 0x40, 0x3d,
  0x3e, 0x0e, 0xb5, 0x3e, 0x99, 0x81, 0x28, 0x3d, 0x67, 0xbd, 0x52, 0x3e,
  0xd6, 0xe5, 0x71, 0xbd, 0x19, 0xc8, 0x35, 0x3d, 0x4c, 0x7d, 0x24, 0x3d,
  0xac, 0x5d, 0x6e, 0xbd, 0x03, 0x89, 0xa8, 0x3c, 0xbb, 0x0e, 0xc9, 0x3d,
  0x2b, 0x4a, 0x3e, 0x3e, 0x02, 0xd4, 0x73, 0xbd, 0x68, 0xe6, 0x82, 0xbd,
  0xb2, 0x34, 0x3e, 0x3e, 0x2c, 0x30, 0xc4, 0xbd, 0x8b, 0x28, 0xc4, 0xbd,
  0x79, 0xaf, 0x92, 0xbd, 0x7d, 0xfd, 0x63, 0x3e, 0x11, 0x91, 0xf2, 0xbc,
  0x26, 0x8b, 0x1b, 0xbc, 0xa4, 0x58, 0x51, 0x3c, 0x72, 0x0f, 0x3e, 0x3e,
  0xc5, 0x84, 0x00, 0x3d, 0x06, 0x85, 0x52, 0x40, 0x80, 0x39, 0xba, 0x3c,
  0xb2, 0xae, 0x82, 0x3c, 0x90, 0x29, 0xb5, 0xbd, 0x13, 0xb7, 0xc9, 0xbd,
  0xf2, 0xff, 0x19, 0xbd, 0xb1, 0x4c, 0xe6, 0x3c, 0x8b, 0x3c, 0x23, 0x3c,
  0xd8, 0x47, 0xd0, 0x3e, 0x53, 0x95, 0xcd, 0x3d, 0xd4, 0x56, 0xeb, 0x3f,
  0x73, 0x12, 0xf6, 0x3d, 0x0f, 0x74, 0x2e, 0x3d, 0x30, 0x27, 0x4b, 0x3b,
  0x72, 0x5c, 0xc1, 0x3d, 0x99, 0x71, 0xb3, 0xbd, 0x57, 0x60, 0x24, 0x40,
  0x06, 0x0a, 0x54, 0xbd, 0xef, 0xac, 0xd0, 0xbd, 0x6c, 0xcd, 0x96, 0xbe,
  0xa9, 0xd9, 0x10, 0x3d, 0xf9, 0x54, 0x84, 0x3c, 0xb1, 0xdc, 0x83, 0xbd,
  0x90, 0x51, 0x7f, 0x3e, 0xc0, 0x1f, 0x8e, 0x3d, 0xe7, 0x53, 0xb9, 0x3d,
  0x70, 0x92, 0xc7, 0x3f, 0x93, 0xc7, 0x6e, 0xbd, 0xa4, 0x39, 0x04, 0xbd,
  0x70, 0xf1, 0xa7, 0xbd, 0x81, 0xaf, 0x87, 0xbd, 0x0c, 0xa0, 0x0c, 0x3d,
  0xd0, 0x6d, 0x2c, 0x40, 0x18, 0xd0, 0x99, 0xbc, 0x82, 0x48, 0x3f, 0xbd,
  0xb6, 0x54, 0xe8, 0xbd, 0x4d, 0x26, 0xee, 0x3c, 0x90, 0xfc, 0x26, 0x3e,
  0x5d, 0xb2, 0x64, 0xbd, 0x1c, 0x4a, 0x39, 0x3e, 0x60, 0xcd, 0x93, 0x3e,
  0x61, 0xc1, 0xd7, 0x3d, 0xb2, 0xc7, 0xde, 0x3f, 0xb5, 0x09, 0xc2, 0xbd,
  0x21, 0x4b, 0xdf, 0xbc, 0x19, 0x3d, 0xb4, 0xbc, 0xf0, 0x5b, 0x37, 0xbe,
  0x53, 0x70, 0x3d, 0x3d, 0x2b, 0x88, 0x51, 0x40, 0x85, 0x1b, 0xd6, 0xbc,
  0x97, 0xd1, 0x98, 0xbd, 0x93, 0xea, 0x42, 0xbe, 0x0a, 0x98, 0xe7, 0x3d,
  0xd1, 0x30, 0xa0, 0x3d, 0x95, 0xaa, 0x20, 0xbd, 0x2b, 0x9f, 0x43, 0x3e,
  0x65, 0xc3, 0x92, 0x3e, 0x75, 0xa6, 0xe0, 0x3d, 0x53, 0xbe, 0x0a, 0x40,
  0x5d, 0x8e, 0x30, 0xbe, 0xfa, 0xba, 0x2b, 0xbd, 0x5f, 0x43, 0x9b, 0xbd,
  0xcc, 0x29, 0xc6, 0x3d, 0x27, 0x5f, 0x64, 0xbd, 0x24, 0xb6, 0x4f, 0x40,
  0x03, 0x95, 0x4a, 0xbd, 0x4e, 0x4a, 0x97, 0x3c, 0x71, 0xae, 0x7c, 0x3d,
  0x7c, 0xb6, 0x1d, 0x3d, 0x8f, 0x4f, 0x91, 0x3c, 0x21, 0x7a, 0x6d, 0xbc,
  0xe7, 0x45, 0x86, 0x3e, 0x5a, 0x49, 0xcc, 0x3e, 0x7f, 0x6d, 0x0b, 0x3e,
  0x19, 0x88, 0x8f, 0x3f, 0xd2, 0x35, 0x16, 0xbe, 0x36, 0x23, 0x65, 0x3d,
  0x6a, 0x48, 0x22, 0x3d, 0xc5, 0x02, 0x89, 0x3d, 0xf5, 0x8c, 0x03, 0xbe,
  0x87, 0x70, 0x3a, 0x40, 0xb5, 0x9f, 0x87, 0x3d, 0xe1, 0x94, 0xdb, 0xbc,
  0x8b, 0x61, 0x1a, 0x3d, 0x27, 0x95, 0xa5, 0xbd, 0xb9, 0xbc, 0xe5, 0xbc,
  0xd9, 0x88, 0x02, 0x3e, 0x5d, 0x32, 0x13, 0x3e, 0x85, 0x79, 0xf5, 0x3e,
  0xc2, 0x6b, 0xfc, 0x3d, 0x21, 0xed, 0xa6, 0x3f, 0x2a, 0x05, 0xce, 0xbd,
  0x1b, 0x23, 0xae, 0x3d, 0x3a, 0x00, 0xc8, 0x3b, 0x03, 0x63, 0x8f, 0x3d,
  0xca, 0x15, 0x23, 0x3d, 0x7f, 0xe8, 0xe3, 0x3e, 0x87, 0x77, 0x82, 0xbd,
  0xa9, 0x29, 0x4a, 0xbd, 0x1b, 0x8e, 0x70, 0x3e, 0xb1, 0x70, 0x4c, 0xbb,
  0x29, 0xbc, 0xb0, 0x3d, 0x8e, 0x11, 0x8c, 0xbc, 0x7e, 0xe2, 0xd3, 0xbc,
  0x34, 0x00, 0x31, 0x3d, 0x25, 0x99, 0x7c, 0xbc, 0x51, 0x86, 0x92, 0x3d,
  0xd1, 0x34, 0xa5, 0xbd, 0x49, 0x65, 0x1c, 0xbe, 0x1f, 0x4f, 0x2d, 0x3c,
  0x89, 0x15, 0x2c, 0xbe, 0x68, 0xc4, 0xbb, 0xbd, 0xe4, 0x57, 0xa1, 0xbd,
  0xf3, 0x0e, 0x3a, 0xbe, 0xc1, 0x8b, 0x14, 0xbe, 0x8c, 0xaa, 0x9a, 0x3d,
  0xa8, 0x44, 0xda, 0x3d, 0x84, 0x38, 0x7b, 0xbe, 0x8d, 0xf0, 0x80, 0x3b,
  0xd8, 0x99, 0x1c, 0xbe, 0x00, 0x6f, 0xff, 0xbd, 0x11, 0x94, 0x55, 0xbd,
  0x05, 0x18, 0x2d, 0x3e, 0xc8, 0x35, 0x84, 0xbe, 0xcb, 0x5d, 0x65, 0xbe,
  0x1c, 0x3a, 0x18, 0xbe, 0x0d, 0x96, 0x5f, 0xbe, 0xc5, 0x69, 0x62, 0x3d,
  0xdc, 0xc1, 0x1d, 0x3d, 0xfb, 0x48, 0x72, 0xbc, 0xba, 0xc0, 0xed, 0xbd,
  0xf9, 0xea, 0x9e, 0x3d, 0xfa, 0x44, 0x52, 0xbe, 0x6a, 0xb7, 0x72, 0xbe,
  0x67, 0x3f, 0x24, 0x3e, 0xa8, 0x07, 0xdb, 0x3d, 0x1d, 0x13, 0x1e, 0xbd,
  0x3b, 0x0a, 0x44, 0x3d, 0xea, 0x37, 0x09, 0xbe, 0x94, 0x34, 0x43, 0xbe,
  0x67, 0x8c, 0xe6, 0xbd, 0x12, 0x04, 0x18, 0xbd, 0x3a, 0x49, 0xfa, 0x3c,
  0x93, 0xb7, 0xb3, 0x3c, 0x3c, 0xac, 0x40, 0xbe, 0x55, 0x30, 0xb9, 0xbd,
  0xe2, 0x3d, 0xd0, 0x3d, 0x66, 0x01, 0x7f, 0x3d, 0x1a, 0x3c, 0x83, 0x3c,
  0xf8, 0x21, 0x09, 0xbe, 0x9b, 0xd1, 0x37, 0x3e, 0x0b, 0xce, 0xef, 0xbd,
  0x20, 0xd4, 0xf4, 0xbd, 0x2c, 0x80, 0x7b, 0x3c, 0x99, 0xe8, 0x0b, 0x3e,
  0xd9, 0x86, 0xa8, 0xbe, 0xed, 0xd7, 0xdb, 0xbd, 0xa6, 0x6b, 0x5e, 0xbe,
  0x79, 0x31, 0xc2, 0x3e, 0x34, 0x5d, 0x26, 0x3e, 0xe0, 0x92, 0xa1, 0x3c,
  0x38, 0xbd, 0xda, 0x3c, 0xcb, 0x9e, 0xda, 0x3d, 0x99, 0x47, 0x29, 0x3e,
  0xd3, 0x2b, 0x40, 0xbc, 0x75, 0xc9, 0xdf, 0x3b, 0x0b, 0x5b, 0xb1, 0x3d,
  0xa4, 0x06, 0x0d, 0x3e, 0xd4, 0xef, 0x28, 0x3e, 0x41, 0x60, 0xb7, 0x3e,
  0x49, 0x2b, 0x10, 0xbe, 0x13, 0xff, 0x68, 0x3c, 0x11, 0xbf, 0x00, 0xbd,
  0x9c, 0x0f, 0x73, 0xbc, 0xde, 0x7e, 0x90, 0x3e, 0xd7, 0x75, 0x84, 0xbe,
  0xcc, 0x1b, 0x4b, 0x3d, 0x3c, 0x08, 0xc3, 0xbb, 0x9d, 0x07, 0x67, 0x3c,
  0x80, 0x46, 0x34, 0xbd, 0x8b, 0x26, 0x86, 0x3d, 0xe1, 0x54, 0x1d, 0x3e,
  0x4e, 0x17, 0xa8, 0x3d, 0xf2, 0x76, 0x34, 0xbe, 0x84, 0xc2, 0xb4, 0x3e,
  0x5f, 0xa7, 0x00, 0x3d, 0x96, 0xfd, 0x18, 0xbe, 0xa6, 0x94, 0x81, 0xbd,
  0xd6, 0xa5, 0x1b, 0xbe, 0x54, 0xa4, 0x95, 0x3d, 0x71, 0xd1, 0x73, 0x3e,
  0xcc, 0x9c, 0xf7, 0xbd, 0xac, 0x88, 0x28, 0x3d, 0x96, 0xce, 0xa8, 0xbd,
  0xad, 0x9a, 0xdc, 0x3b, 0x5d, 0x38, 0xbc, 0xbd, 0x7c, 0x12, 0x91, 0xbd,
  0xb4, 0x64, 0x2d, 0x3e, 0xb0, 0x00, 0x83, 0xbe, 0x74, 0x19, 0x9e, 0x3d,
  0x46, 0x01, 0x94, 0x3e, 0xd5, 0x54, 0xf8, 0x3d, 0x56, 0xe9, 0xac, 0xbd,
  0xfc, 0x20, 0x48, 0xbe, 0xa9, 0xa4, 0x27, 0xbd, 0x4d, 0xc6, 0x0b, 0xbe,
  0x78, 0x72, 0x79, 0xbd, 0xeb, 0x34, 0xa3, 0xbd, 0x4d, 0xd4, 0x8a, 0xbd,
  0xdc, 0x19, 0xc5, 0xbb, 0xf1, 0x63, 0xc2, 0xbc, 0xf3, 0xe8, 0xdc, 0x3c,
  0xcb, 0xcf, 0xfb, 0xbd, 0x01, 0xc1, 0x47, 0xbe, 0x5f, 0x53, 0xfb, 0xbc,
  0x8e, 0x67, 0x35, 0xbe, 0x48, 0x1f, 0x9d, 0xbd, 0x69, 0x96, 0xbb, 0x3c,
  0xe2, 0xaf, 0xbc, 0xbd, 0xeb, 0x86, 0x3b, 0xbe, 0x0e, 0x2d, 0x39, 0xbe,
  0x0d, 0x05, 0xad, 0xbd, 0x4e, 0xea, 0x0a, 0xbf, 0x5b, 0xfc, 0x8f, 0xbd,
  0x1d, 0x1d, 0x2f, 0x3e, 0x92, 0xc5, 0x29, 0xbb, 0x64, 0xf9, 0x7a, 0xbd,
  0x0f, 0x17, 0x81, 0x3e, 0x31, 0xde, 0x56, 0xbe, 0x01, 0x04, 0x22, 0xbf,
  0x2f, 0xe4, 0xe6, 0x3d, 0xba, 0xca, 0x28, 0xbd, 0xd1, 0xbf, 0xde, 0xbe,
  0x42, 0x03, 0x45, 0xbd, 0x36, 0xe5, 0x40, 0x3e, 0x9f, 0xca, 0x86, 0x3c,
  0x53, 0x32, 0x84, 0xbe, 0x87, 0x3e, 0x86, 0x3e, 0xfa, 0x0f, 0xbb, 0xbe,
  0xa0, 0x41, 0x61, 0xbe, 0xb8, 0xb0, 0xe4, 0xbd, 0x6a, 0xd2, 0x0c, 0x3d,
  0xc7, 0x36, 0xf2, 0x3c, 0xbf, 0x5b, 0xeb, 0x3d, 0x3c, 0x6c, 0x98, 0xbd,
  0x59, 0x1f, 0x16, 0xbf, 0x53, 0x0f, 0xfb, 0x3d, 0xac, 0x41, 0xdf, 0xbd,
  0x8d, 0xbb, 0x1f, 0xbf, 0xa8, 0x48, 0x65, 0xbd, 0x0a, 0x7b, 0x10, 0x3e,
  0x48, 0x38, 0x1e, 0x3d, 0x96, 0x0d, 0x86, 0xbd, 0x79, 0xdf, 0x8d, 0xbe,
  0xe2, 0x84, 0xee, 0xbb, 0x5a, 0x4b, 0x98, 0xbe, 0xdb, 0x08, 0x30, 0xbf,
  0x10, 0x1d, 0xb1, 0x3d, 0xf6, 0xe1, 0x0d, 0x3d, 0xc3, 0xf4, 0xbf, 0x3e,
  0x95, 0xa1, 0x0e, 0x3e, 0x18, 0x31, 0x60, 0xbe, 0xe0, 0x24, 0x5c, 0x3d,
  0xa1, 0x0e, 0xeb, 0x3c, 0xc9, 0x84, 0xfe, 0x3c, 0xba, 0x46, 0xfd, 0x3d,
  0xef, 0x50, 0x14, 0x3e, 0x80, 0x89, 0x3b, 0x3e, 0xd8, 0x07, 0x0c, 0xbd,
  0x57, 0xe9, 0xc2, 0xbe, 0x5c, 0xce, 0x20, 0x3e, 0xfc, 0x15, 0xad, 0xbd,
  0x81, 0xb6, 0xc6, 0xbe, 0x8d, 0x5c, 0x09, 0x3d, 0x7a, 0x25, 0xb8, 0xbd,
  0x08, 0x60, 0x01, 0x3e, 0xdb, 0xcb, 0xbc, 0x3d, 0xa3, 0xcd, 0x1e, 0x3e,
  0xb7, 0x54, 0x20, 0x3d, 0xe8, 0xa0, 0xdb, 0x3c, 0x63, 0xd1, 0x9b, 0xbe,
  0x28, 0x65, 0x02, 0x3e, 0x95, 0x4e, 0x12, 0x3d, 0x68, 0x63, 0x6b, 0x3e,
  0x1b, 0x4a, 0x2e, 0xbb, 0xf3, 0xaf, 0x0d, 0xbf, 0x01, 0xc2, 0xc7, 0x3d,
  0xc6, 0x91, 0xc6, 0xbe, 0x8d, 0x0f, 0x07, 0xbf, 0x1a, 0x0f, 0x44, 0x3d,
  0x31, 0x8b, 0x05, 0xbe, 0x8c, 0xc7, 0x25, 0xbc, 0x64, 0x0a, 0xa9, 0x3c,
  0x91, 0xb2, 0x47, 0xbd, 0x19, 0x63, 0x45, 0x3e, 0x74, 0x32, 0xe3, 0xbe,
  0x5a, 0xde, 0x8e, 0xbe, 0xcc, 0xfe, 0x4d, 0xbc, 0xe4, 0x00, 0xab, 0x3c,
  0x68, 0xb1, 0xda, 0x3d, 0x60, 0x06, 0x79, 0x3d, 0x2f, 0xca, 0xa2, 0xbe,
  0x91, 0x05, 0x35, 0xbe, 0xf5, 0x20, 0xf6, 0xbe, 0x11, 0xa9, 0x27, 0xbf,
  0x1c, 0x27, 0x6d, 0x3d, 0xab, 0x9b, 0x87, 0xbe, 0x0e, 0x86, 0x44, 0xbe,
  0xa3, 0x08, 0x2d, 0xbe, 0xbb, 0x3c, 0x21, 0xbe, 0x30, 0x29, 0xfc, 0xbc,
  0x84, 0x2d, 0x3e, 0xbf, 0x51, 0x55, 0x05, 0xbf, 0x3a, 0x86, 0xdb, 0xbe,
  0x3c, 0xe6, 0xd0, 0x3d, 0x42, 0x4b, 0x97, 0x3d, 0xf0, 0xd7, 0xcd, 0xbd,
  0xa4, 0x74, 0x86, 0xbe, 0xf7, 0xe4, 0x35, 0x3d, 0x14, 0xef, 0x5f, 0xbe,
  0xf7, 0x7d, 0xa8, 0xbe, 0x32, 0xeb, 0x9e, 0xbc, 0x98, 0xf8, 0xd7, 0x3c,
  0xb3, 0x7f, 0x5a, 0xbe, 0x4c, 0xc0, 0x35, 0xbd, 0x13, 0xb1, 0x04, 0xbe,
  0xed, 0xd7, 0xeb, 0xbc, 0x04, 0xd7, 0x4b, 0xbe, 0x6b, 0xd6, 0x2e, 0xbe,
  0xc8, 0x0b, 0xfe, 0xbe, 0x8e, 0x4d, 0x81, 0x3e, 0xad, 0x75, 0x18, 0xbc,
  0x3d, 0xb5, 0xfb, 0xbb, 0x95, 0x87, 0xee, 0xbb, 0x2e, 0xe2, 0x44, 0x3d,
  0x0a, 0x80, 0xef, 0xbe, 0x90, 0xd8, 0x43, 0x40, 0x9a, 0xff, 0x58, 0x3d,
  0xca, 0x6b, 0x7c, 0x3d, 0xb5, 0x6d, 0x9a, 0xbe, 0x19, 0x64, 0xeb, 0xbc,
  0xac, 0x99, 0xb8, 0x3d, 0x76, 0x5f, 0xb7, 0x3d, 0x06, 0x94, 0x69, 0x3d,
  0x3d, 0x56, 0xa3, 0x3e, 0x6c, 0x64, 0xe6, 0xbc, 0xe5, 0xe8, 0xd7, 0x3f,
  0xe0, 0x6c, 0xaa, 0xbd, 0xdb, 0xc9, 0x98, 0xbe, 0x41, 0x24, 0xa9, 0xbe,
  0xf7, 0x02, 0x99, 0x3c, 0x0e, 0x16, 0xbd, 0xbe, 0x2b, 0x7a, 0x47, 0x40,
  0xc3, 0x18, 0x57, 0xbc, 0x64, 0x99, 0x3c, 0xbe, 0xbd, 0x2a, 0x04, 0xbf,
  0x27, 0x38, 0x0e, 0xbe, 0x8d, 0xa6, 0x4b, 0xbc, 0x2b, 0x16, 0x21, 0x3e,
  0x2a, 0x8b, 0x99, 0x3e, 0xd6, 0xd9, 0x3a, 0x3e, 0x33, 0x41, 0xb2, 0xbc,
  0xe8, 0x9a, 0x12, 0x40, 0x94, 0x7e, 0x31, 0xb9, 0x03, 0x93, 0x36, 0xbe,
  0xd5, 0xd1, 0x28, 0xbf, 0xa7, 0x47, 0x8d, 0x3e, 0x1e, 0xb2, 0xa0, 0xbe,
  0x16, 0xd2, 0x76, 0x40, 0x97, 0x56, 0x5d, 0x3d, 0xe1, 0x30, 0xfb, 0xbd,
  0x60, 0x9b, 0xa1, 0xbe, 0x76, 0x51, 0xa9, 0xbe, 0x62, 0x29, 0xcf, 0x3d,
  0xdd, 0x71, 0x57, 0x3d, 0x63, 0x6f, 0xaa, 0x3e, 0xef, 0x2c, 0x7a, 0x3e,
  0x2d, 0x9d, 0x68, 0x3e, 0x7c, 0x6d, 0x31, 0x40, 0xb1, 0x60, 0x72, 0x3d,
  0x95, 0x86, 0xfb, 0xbc, 0x61, 0x28, 0xd7, 0xbe, 0x45, 0x99, 0xba, 0x3d,
  0xec, 0x5d, 0x95, 0xbe, 0x92, 0x08, 0x88, 0x40, 0x1f, 0x33, 0xe6, 0x3d,
  0x67, 0xea, 0x9c, 0x3c, 0x98, 0x66, 0x09, 0xbf, 0x7b, 0x2e, 0x39, 0x3d,
  0xdf, 0xb4, 0xf7, 0x3d, 0x16, 0xc0, 0x54, 0xbd, 0x67, 0x69, 0x34, 0x3e,
  0x05, 0x32, 0xcd, 0x3e, 0x78, 0x35, 0x89, 0x3e, 0x17, 0x12, 0x37, 0x40,
  0xa1, 0x48, 0xe6, 0x3d, 0xcf, 0x7f, 0x8b, 0xbd, 0x69, 0x4b, 0x85, 0xbe,
  0xf5, 0xfb, 0x06, 0xbd, 0xc7, 0x39, 0x48, 0xbe, 0xd1, 0xee, 0x69, 0x40,
  0xe9, 0xe6, 0x88, 0x3d, 0xb1, 0xae, 0xa6, 0xbe, 0x3a, 0x8c, 0x4d, 0xbf,
  0xf2, 0xc8, 0x1e, 0xbd, 0xc8, 0x1b, 0x01, 0x3e, 0xef, 0x3a, 0x9f, 0xbd,
  0xf5, 0x09, 0x0b, 0x3d, 0xa5, 0x48, 0xb1, 0x3e, 0x6c, 0x71, 0x67, 0x3d,
  0xb7, 0xf4, 0x0f, 0x40, 0x3f, 0x17, 0x1e, 0xbb, 0x82, 0x38, 0x35, 0xbd,
  0xc1, 0x76, 0x22, 0xbe, 0x23, 0x4d, 0x4f, 0x3e, 0xc7, 0xa6, 0xa2, 0xbe,
  0x2a, 0xfd, 0x09, 0x40, 0x65, 0x5d, 0x3d, 0xbb, 0x51, 0x0a, 0x43, 0xbc,
  0x14, 0x6c, 0xb5, 0xbe, 0x72, 0x10, 0xe3, 0xbd, 0x4f, 0xba, 0x99, 0x3d,
  0xc6, 0x9f, 0x61, 0x3d, 0x9d, 0xac, 0x70, 0x3d, 0x05, 0x35, 0xc4, 0x3e,
  0x22, 0xdd, 0xc7, 0x3d, 0x76, 0xda, 0x31, 0x40, 0x0d, 0x15, 0x6c, 0xbd,
  0xea, 0x0c, 0x50, 0xbe, 0x3c, 0x6e, 0xf2, 0xbe, 0x1c, 0x08, 0x16, 0x3d,
  0x99, 0xf9, 0x8b, 0xbe, 0xa5, 0x71, 0x2e, 0x3f, 0xd4, 0xd5, 0x3c, 0xbd,
  0x4f, 0xa8, 0x6d, 0x3c, 0xdf, 0xf3, 0xb6, 0xbe, 0x18, 0xbe, 0x26, 0xbd,
  0x6d, 0x17, 0x97, 0x3d, 0xf2, 0xae, 0x6d, 0xbc, 0xe6, 0xcb, 0xb3, 0xbc,
  0x52, 0x71, 0x2f, 0x3e, 0x3e, 0x8d, 0x0e, 0x3e, 0x1f, 0xac, 0x3e, 0xbd,
  0x89, 0xc1, 0xd7, 0xbc, 0xda, 0xfc, 0x6a, 0xbe, 0x60, 0x54, 0x6a, 0xba,
  0xee, 0xf1, 0x6c, 0x3e, 0xf3, 0x31, 0x29, 0xbe, 0x9e, 0xd9, 0x33, 0xbe,
  0xf6, 0x20, 0xdc, 0xbd, 0x7c, 0x6b, 0x67, 0x3d, 0x1c, 0x84, 0x9b, 0xbd,
  0xa3, 0x5e, 0x26, 0x3e, 0x53, 0xa5, 0x8a, 0x3e, 0x1d, 0xfe, 0x94, 0x3b,
  0xbb, 0x17, 0x18, 0xbe, 0x3f, 0xbf, 0xe8, 0xbc, 0x3a, 0x29, 0x89, 0xbd,
  0xe2, 0x4e, 0x32, 0xbe, 0xd0, 0x2b, 0x0e, 0xbe, 0xe1, 0x51, 0x7f, 0xbd,
  0x4d, 0x67, 0x3c, 0xbe, 0x8c, 0x27, 0xf6, 0xbc, 0x68, 0xcd, 0x01, 0xbb,
  0x0f, 0x4c, 0x57, 0x3e, 0xe3, 0x33, 0xd7, 0xbe, 0xe9, 0xcb, 0x8f, 0x3d,
  0x7f, 0x0a, 0xe4, 0xbd, 0x6d, 0x85, 0xc6, 0xbd, 0xc5, 0x3e, 0x4f, 0x3d,
  0xb3, 0x1c, 0xe2, 0xbd, 0x34, 0xe3, 0x46, 0x3e, 0xe2, 0x96, 0x84, 0x3e,
  0x6e, 0x2f, 0xb7, 0x3e, 0x50, 0xdb, 0xee, 0x3c, 0x55, 0x88, 0x31, 0xbc,
  0xde, 0x26, 0x8c, 0x3e, 0x20, 0xaf, 0xb4, 0xbc, 0xf8, 0x14, 0x0e, 0x3d,
  0xc4, 0x43, 0xb2, 0x3d, 0xf0, 0x7e, 0x48, 0xbd, 0xa5, 0x18, 0x12, 0xbe,
  0x13, 0xcb, 0x19, 0xbd, 0xe2, 0x2d, 0x0e, 0xbe, 0x44, 0xa1, 0xaf, 0xbd,
  0x7d, 0xfa, 0x0f, 0xbd, 0x6e, 0x67, 0xc1, 0x3d, 0x76, 0xdc, 0x94, 0xbd,
  0x1b, 0x8a, 0x94, 0xbd, 0x7c, 0xe5, 0x97, 0x3e, 0xd8, 0x9e, 0xc2, 0x3d,
  0x0d, 0x7a, 0x30, 0xbe, 0x72, 0xf2, 0xb7, 0x3e, 0x28, 0x16, 0x1d, 0x3d,
  0x25, 0xaa, 0x9e, 0x3e, 0x35, 0x3a, 0x1b, 0x3d, 0x2e, 0xd7, 0xba, 0x3d,
  0x95, 0x9e, 0x81, 0xbe, 0xa4, 0x9d, 0xae, 0x3d, 0xf7, 0xa7, 0x9b, 0xbd,
  0x08, 0x89, 0x9e, 0xbd, 0x09, 0x21, 0x9c, 0x3e, 0x24, 0xa6, 0x13, 0xbd,
  0x95, 0x15, 0xa7, 0x3d, 0x43, 0x3c, 0x9a, 0xbc, 0xe2, 0x33, 0x01, 0x3e,
  0x8d, 0xf6, 0x5a, 0xbe, 0xfc, 0x2f, 0x1e, 0xbd, 0x48, 0x8a, 0x15, 0xbe,
  0xbb, 0x45, 0x87, 0xbe, 0xf5, 0xdf, 0x1f, 0x3e, 0x43, 0x40, 0x74, 0xbd,
  0x35, 0x9f, 0x03, 0xbe, 0x19, 0xb6, 0x13, 0xbe, 0xac, 0x5a, 0xbc, 0x3d,
  0xbc, 0x51, 0x8d, 0xbe, 0xaa, 0xc2, 0x95, 0x3d, 0x73, 0x8b, 0x84, 0x3e,
  0xe1, 0x73, 0x26, 0xbe, 0xbc, 0xf2, 0x66, 0xbd, 0xa7, 0x0f, 0xe8, 0x3d,
  0x26, 0x7e, 0x32, 0x3e, 0xf7, 0x9f, 0x22, 0xbe, 0x83, 0xe8, 0x8e, 0xbd,
  0x9f, 0xd9, 0x07, 0xbe, 0xd2, 0x27, 0x5e, 0xbe, 0x95, 0x9b, 0x57, 0xbd,
  0x65, 0xd9, 0xd1, 0xbc, 0xd0, 0xc2, 0xf6, 0x3c, 0xca, 0x52, 0xd7, 0xbd,
  0x51, 0x79, 0x25, 0xbe, 0x90, 0xa5, 0x3d, 0xbe, 0xd2, 0x63, 0xa4, 0x3e,
  0x66, 0x82, 0x99, 0x3e, 0x38, 0x49, 0xd1, 0x3d, 0xdb, 0xc1, 0x5c, 0xbe,
  0x34, 0x9a, 0x84, 0x3c, 0x40, 0x78, 0x0b, 0xbe, 0x04, 0x92, 0x4e, 0x3d,
  0x6d, 0xd2, 0x70, 0x3e, 0x38, 0xd1, 0x92, 0xbc, 0xa0, 0x71, 0x0d, 0x3e,
  0x92, 0xe3, 0x88, 0xbe, 0x76, 0xc3, 0x1c, 0x3b, 0x5c, 0x02, 0x92, 0x3d,
  0xb6, 0x0b, 0xd4, 0xbd, 0xfa, 0x73, 0xc0, 0xbb, 0x23, 0xde, 0x07, 0x3e,
  0x94, 0x22, 0xba, 0xbe, 0xc0, 0x66, 0x56, 0x3e, 0x78, 0xcb, 0xbe, 0xbd,
  0xb3, 0xbe, 0x8b, 0xbe, 0x78, 0x89, 0x93, 0xbe, 0x93, 0x64, 0xc9, 0x3d,
  0x44, 0x2e, 0xc4, 0x3c, 0x42, 0x8c, 0x8d, 0xbd, 0x34, 0x61, 0x12, 0x3e,
  0x5f, 0x50, 0xb8, 0xbd, 0xa6, 0x8d, 0x08, 0x3e, 0xc8, 0x31, 0x1d, 0xbe,
  0x21, 0x7c, 0x77, 0x3f, 0xab, 0x9d, 0x31, 0x3d, 0x6f, 0x20, 0x2e, 0x3d,
  0xb6, 0x05, 0x0c, 0xbe, 0x8d, 0xea, 0x8b, 0x3d, 0x3f, 0x91, 0x93, 0x3e,
  0x9e, 0x8b, 0xf7, 0xbc, 0xf5, 0xc3, 0xcf, 0x3c, 0x3d, 0x5a, 0x5d, 0x3e,
  0x4e, 0xb7, 0xa7, 0x3c, 0x3b, 0x81, 0x18, 0x3f, 0x0b, 0x79, 0xd3, 0xbd,
  0x1d, 0x92, 0xe9, 0x3d, 0xec, 0xa3, 0xc4, 0xbd, 0x2e, 0xc7, 0x0b, 0x3e,
  0xf2, 0x71, 0x49, 0xbd, 0xa9, 0xd8, 0x59, 0x3f, 0x7f, 0x15, 0x36, 0xbd,
  0x0d, 0xf8, 0x88, 0xbd, 0x70, 0x44, 0xe9, 0x3d, 0xa9, 0x65, 0xa8, 0x3d,
  0xb0, 0x36, 0xe9, 0x3d, 0xc0, 0xf5, 0xbe, 0xbd, 0x1b, 0x6f, 0xbf, 0x3d,
  0xe9, 0x96, 0x19, 0x3e, 0x66, 0xd5, 0x17, 0x3d, 0xc8, 0xf4, 0x4d, 0x3f,
  0xb0, 0xe6, 0xfe, 0x3c, 0x17, 0x23, 0xed, 0xbd, 0x81, 0x30, 0x01, 0x3d,
  0x20, 0x8b, 0xf0, 0xbb, 0xbf, 0x4b, 0x7b, 0x3c, 0xa3, 0x8a, 0x61, 0x3f,
  0xa2, 0xd1, 0xe4, 0xbc, 0x15, 0x4c, 0x45, 0xbd, 0xc6, 0xd0, 0x8d, 0xbc,
  0x0a, 0x3d, 0xba, 0x3b, 0x8a, 0x42, 0x91, 0x3d, 0x89, 0x57, 0xb6, 0xbd,
  0x3c, 0xd2, 0x27, 0x3d, 0xb9, 0xa6, 0xbc, 0x3d, 0x30, 0xbd, 0xa4, 0x3d,
  0x3a, 0x5b, 0xf2, 0x3e, 0x3a, 0x3d, 0xfc, 0xbd, 0x1d, 0xa1, 0x70, 0x3c,
  0x4c, 0x3e, 0x82, 0x3d, 0x2f, 0xcd, 0x8f, 0x3c, 0x7f, 0xfe, 0x37, 0xbd,
  0x2d, 0xbb, 0x7c, 0x3f, 0xa5, 0x4d, 0x19, 0xbd, 0xfb, 0x10, 0xb3, 0xbc,
  0x85, 0x2c, 0x00, 0x3d, 0xd1, 0x63, 0xae, 0x3c, 0xd5, 0xab, 0x9e, 0xbc,
  0xe0, 0x67, 0xa8, 0xbd, 0x02, 0xd2, 0x8f, 0x3d, 0xdf, 0xd1, 0x5b, 0x3d,
  0xb7, 0xba, 0x96, 0x3c, 0x6d, 0x7d, 0xd9, 0x3e, 0xbd, 0x6d, 0xf4, 0xbd,
  0x4f, 0xc7, 0x95, 0x3d, 0x51, 0xe8, 0xa6, 0x3d, 0x19, 0x4a, 0xe4, 0xbd,
  0x54, 0xa4, 0x73, 0xbc, 0xff, 0x45, 0x82, 0x3f, 0xb6, 0x13, 0x70, 0xbd,
  0xad, 0xf8, 0x79, 0xbd, 0x39, 0x91, 0x93, 0xbd, 0xd4, 0x70, 0xe1, 0x3c,
  0x87, 0xc3, 0x14, 0x3e, 0x6d, 0x9c, 0xc4, 0x3c, 0xb4, 0x6e, 0x9d, 0x3d,
  0x9a, 0xf9, 0x53, 0x3e, 0x62, 0x86, 0xf9, 0x3d, 0x02, 0x76, 0x46, 0x3f,
  0xc7, 0x40, 0xce, 0xbd, 0xd6, 0x64, 0x9b, 0x3c, 0x3c, 0x2f, 0x23, 0x3d,
  0x2e, 0x3c, 0xd7, 0x3d, 0xe6, 0x94, 0x97, 0xbb, 0x4a, 0x88, 0x19, 0x3f,
  0xb3, 0xe5, 0xe7, 0xbc, 0x6b, 0xc1, 0x1e, 0x3e, 0x60, 0xa2, 0xee, 0x3d,
  0x3f, 0x74, 0xb8, 0xbd, 0x16, 0xb7, 0x6a, 0x3d, 0xe8, 0xc2, 0x87, 0x3c,
  0xca, 0xa6, 0x09, 0x3e, 0x62, 0x34, 0x96, 0x3e, 0xa6, 0xbb, 0xaa, 0x3d,
  0xc2, 0x73, 0x45, 0x3f, 0xae, 0x17, 0xd6, 0xbd, 0xfb, 0x84, 0xa5, 0x3d,
  0x84, 0x4d, 0x78, 0x3d, 0x95, 0xac, 0xa1, 0x3b, 0x64, 0x7a, 0x1e, 0xbe,
  0x33, 0xf7, 0x14, 0x3f, 0xd6, 0x96, 0xd5, 0x3c, 0x45, 0x8e, 0x47, 0xbd,
  0x57, 0xd6, 0x58, 0xbe, 0x98, 0x2a, 0x50, 0x3c, 0x7d, 0x9f, 0xf7, 0x3d,
  0x9b, 0x4d, 0x63, 0xbd, 0x0b, 0x8b, 0x5a, 0x3d, 0xe5, 0xaa, 0x98, 0x3d,
  0x65, 0xe9, 0x96, 0x3e, 0xa7, 0x30, 0xde, 0x3c, 0x83, 0x3a, 0x5c, 0x3d,
  0xaa, 0x78, 0x82, 0xbb, 0x39, 0xdf, 0x03, 0xbe, 0x85, 0x26, 0x78, 0xbc,
  0x3e, 0x33, 0x29, 0x3e, 0x6c, 0x1e, 0x33, 0xbe, 0x30, 0xdb, 0x4b, 0xbe,
  0xe7, 0x72, 0x04, 0x3b, 0xaa, 0x36, 0x5e, 0xbd, 0x5d, 0xf7, 0x0c, 0xbd,
  0x1d, 0xd2, 0x95, 0x3d, 0x83, 0xeb, 0x32, 0xbe, 0x3b, 0x1c, 0xce, 0x3d,
  0xff, 0xa4, 0x21, 0xbe, 0x40, 0x47, 0x9e, 0x3b, 0x43, 0x4f, 0xee, 0xbd,
  0x55, 0xaf, 0x45, 0xbe, 0xfb, 0x2c, 0xbd, 0xbe, 0xa8, 0x60, 0x27, 0x3d,
  0x0a, 0xb5, 0xf3, 0x3d, 0x5f, 0x20, 0x53, 0x3c, 0xed, 0xf3, 0x53, 0xbe,
  0xf5, 0x73, 0x8c, 0xbe, 0xcd, 0x00, 0x19, 0x3d, 0xf7, 0x37, 0x86, 0xbd,
  0xd3, 0x28, 0x10, 0xbe, 0x05, 0xdc, 0x2e, 0xbe, 0x67, 0xef, 0x0c, 0xbe,
  0x91, 0xa9, 0xfb, 0x3d, 0x4c, 0xce, 0x01, 0xba, 0xbe, 0xe4, 0x8f, 0xbd,
  0xf2, 0x9c, 0x64, 0x3d, 0xf9, 0x4c, 0x90, 0xbe, 0x70, 0xd8, 0x57, 0xbe,
  0x7e, 0x36, 0x89, 0xbe, 0x91, 0x17, 0xbf, 0x3b, 0x56, 0x2c, 0x4e, 0x3d,
  0x07, 0xd7, 0x13, 0x3e, 0xc6, 0x0c, 0x49, 0xbe, 0x31, 0x34, 0xc3, 0x3d,
  0x00, 0x0c, 0xe7, 0xbd, 0x6d, 0xa4, 0x0a, 0xbd, 0xb8, 0xc4, 0x89, 0xbe,
  0xdd, 0x46, 0xb2, 0xbd, 0x2c, 0x35, 0x26, 0x3c, 0x30, 0x4b, 0x0e, 0x3e,
  0x72, 0x33, 0xc6, 0xbd, 0x18, 0xf7, 0x58, 0xbe, 0x11, 0x2f, 0x34, 0xbd,
  0xc0, 0xfc, 0x1c, 0xbd, 0x47, 0x7e, 0x45, 0xbe, 0x2c, 0x73, 0xd6, 0x3d,
  0x07, 0xe2, 0xdb, 0x3d, 0x9a, 0x4e, 0xec, 0x3d, 0x26, 0x57, 0xf7, 0xbe,
  0x12, 0x99, 0x96, 0x3c, 0x77, 0xba, 0xbb, 0xbd, 0x79, 0xc9, 0x40, 0xbe,
  0x8f, 0xcc, 0x6d, 0xbe, 0x5e, 0x71, 0x7d, 0xbd, 0xfc, 0xa2, 0x2e, 0xbe,
  0xbb, 0xe0, 0x33, 0x3d, 0x6b, 0xb6, 0x21, 0xbe, 0xe7, 0x11, 0xc4, 0x3c,
  0x3e, 0xfd, 0x64, 0xbe, 0x07, 0x91, 0xa0, 0xbc, 0x65, 0x38, 0xff, 0xbd,
  0xda, 0xaf, 0x25, 0x3d, 0x6c, 0x7a, 0x10, 0xbd, 0xbd, 0x2a, 0x1a, 0xbe,
  0xe3, 0x48, 0x2a, 0xbe, 0x80, 0x04, 0x96, 0x3d, 0x1e, 0xb1, 0xc3, 0xbe,
  0x76, 0xb6, 0x3a, 0xbe, 0xd0, 0x99, 0xe2, 0x3d, 0x12, 0xc6, 0x6e, 0xbe,
  0xce, 0xf0, 0x10, 0xbe, 0xee, 0x2e, 0xac, 0xbd, 0xaa, 0xf0, 0x80, 0xbd,
  0x45, 0xca, 0xde, 0x3d, 0x57, 0xf6, 0x7e, 0xbe, 0x2c, 0x22, 0xcc, 0x3d,
  0xaa, 0x6f, 0xc0, 0xbe, 0x04, 0xec, 0x7f, 0xbc, 0x2e, 0xbd, 0xa8, 0x3d,
  0x1f, 0x95, 0x54, 0x3e, 0x55, 0x93, 0x3d, 0xbe, 0xb1, 0x4a, 0xb0, 0x3d,
  0xb0, 0xbc, 0x64, 0x3d, 0x39, 0x1f, 0x37, 0x3e, 0x99, 0xf2, 0x8a, 0x3e,
  0xc1, 0x21, 0xe0, 0xbd, 0x01, 0x9b, 0x3a, 0xbe, 0x08, 0x7a, 0x45, 0xbe,
  0xd5, 0xac, 0xa0, 0xbd, 0xce, 0x6c, 0x1a, 0xbe, 0x18, 0x71, 0xc3, 0xb9,
  0xaf, 0xf0, 0x01, 0x3e, 0x7a, 0xa1, 0xde, 0xbd, 0x2e, 0x93, 0x39, 0xbe,
  0xd4, 0x3e, 0x33, 0xbe, 0xb9, 0xc1, 0x50, 0xbd, 0x91, 0xc7, 0x06, 0x3d,
  0x0b, 0x42, 0x90, 0x3c, 0xd1, 0x0b, 0x7d, 0xbe, 0xf2, 0x4c, 0xfa, 0x3d,
  0x35, 0x17, 0x23, 0x3e, 0x4e, 0x31, 0xd8, 0xbd, 0xab, 0x6c, 0x06, 0x3e,
  0x9e, 0xa1, 0x75, 0xbe, 0xcb, 0xe5, 0x2e, 0xbd, 0x2f, 0xeb, 0xb7, 0xbe,
  0xb0, 0x98, 0xa5, 0x3d, 0xae, 0x23, 0x0f, 0x3e, 0xb8, 0xbd, 0x51, 0xbe,
  0x46, 0xfe, 0xff, 0xff, 0x10, 0x00, 0x00, 0x00, 0x05, 0x00, 0x00, 0x00,
  0x14, 0x00, 0x00, 0x00, 0x2c, 0x00, 0x00, 0x00, 0x02, 0x00, 0x00, 0x00,
  0x10, 0x00, 0x00, 0x00, 0x70, 0x00, 0x00, 0x00, 0x17, 0x00, 0x00, 0x00,
  0x73, 0x65, 0x71, 0x75, 0x65, 0x6e, 0x74, 0x69, 0x61, 0x6c, 0x2f, 0x64,
  0x65, 0x6e, 0x73, 0x65, 0x2f, 0x4d, 0x61, 0x74, 0x4d, 0x75, 0x6c, 0x00,
  0x34, 0xfe, 0xff, 0xff, 0x2a, 0xff, 0xff, 0xff, 0x04, 0x00, 0x00, 0x00,
  0x08, 0x00, 0x00, 0x00, 0xff, 0xff, 0xff, 0xff, 0x70, 0x00, 0x00, 0x00,
  0x00, 0x00, 0x0e, 0x00, 0x18, 0x00, 0x08, 0x00, 0x07, 0x00, 0x0c, 0x00,
  0x10, 0x00, 0x14, 0x00, 0x0e, 0x00, 0x00, 0x00, 0x00, 0x00, 0x00, 0x02,
  0x10, 0x00, 0x00, 0x00, 0x04, 0x00, 0x00, 0x00, 0x10, 0x00, 0x00, 0x00,
  0x2c, 0x00, 0x00, 0x00, 0x01, 0x00, 0x00, 0x00, 0x02, 0x00, 0x00, 0x00,
  0x18, 0x00, 0x00, 0x00, 0x73, 0x65, 0x71, 0x75, 0x65, 0x6e, 0x74, 0x69,
  0x61, 0x6c, 0x2f, 0x66, 0x6c, 0x61, 0x74, 0x74, 0x65, 0x6e, 0x2f, 0x43,
  0x6f, 0x6e, 0x73, 0x74, 0x00, 0x00, 0x00, 0x00, 0x9c, 0xfe, 0xff, 0xff,
  0x92, 0xff, 0xff, 0xff, 0x04, 0x00, 0x00, 0x00, 0x10, 0x00, 0x00, 0x00,
  0xeb, 0x80, 0x4e, 0xc0, 0x8a, 0x90, 0x8a, 0xc0, 0xdb, 0x9f, 0xdc, 0x3e,
  0x4e, 0xe4, 0x11, 0x40, 0x0a, 0xff, 0xff, 0xff, 0x10, 0x00, 0x00, 0x00,
  0x03, 0x00, 0x00, 0x00, 0x10, 0x00, 0x00, 0x00, 0x3c, 0x00, 0x00, 0x00,
  0x01, 0x00, 0x00, 0x00, 0x04, 0x00, 0x00, 0x00, 0x29, 0x00, 0x00, 0x00,
  0x73, 0x65, 0x71, 0x75, 0x65, 0x6e, 0x74, 0x69, 0x61, 0x6c, 0x2f, 0x64,
  0x65, 0x6e, 0x73, 0x65, 0x5f, 0x31, 0x2f, 0x42, 0x69, 0x61, 0x73, 0x41,
  0x64, 0x64, 0x2f, 0x52, 0x65, 0x61, 0x64, 0x56, 0x61, 0x72, 0x69, 0x61,
  0x62, 0x6c, 0x65, 0x4f, 0x70, 0x00, 0x00, 0x00, 0x60, 0xff, 0xff, 0xff,
  0x00, 0x00, 0x06, 0x00, 0x08, 0x00, 0x04, 0x00, 0x06, 0x00, 0x00, 0x00,
  0x04, 0x00, 0x00, 0x00, 0x40, 0x00, 0x00, 0x00, 0x63, 0xe0, 0xb7, 0xbd,
  0xa5, 0x4b, 0xa3, 0xbf, 0x87, 0x73, 0x1b, 0xbf, 0x6c, 0xcc, 0xb8, 0xbf,
  0xd4, 0xa3, 0xd5, 0xbf, 0x88, 0xcc, 0x06, 0xbf, 0xb4, 0x44, 0xe9, 0x3d,
  0xff, 0xa1, 0xe6, 0xbe, 0xca, 0x8d, 0x90, 0x3f, 0xe8, 0x71, 0x04, 0xbd,
  0xe2, 0xef, 0xb1, 0xbe, 0x9f, 0x64, 0x56, 0x40, 0xd0, 0xef, 0x47, 0x3f,
  0x7d, 0xee, 0xbd, 0xbe, 0x69, 0xd0, 0xac, 0xbf, 0x7a, 0x90, 0xfc, 0xbe,
  0xae, 0xff, 0xff, 0xff, 0x10, 0x00, 0x00, 0x00, 0x02, 0x00, 0x00, 0x00,
  0x10, 0x00, 0x00, 0x00, 0x3c, 0x00, 0x00, 0x00, 0x01, 0x00, 0x00, 0x00,
  0x10, 0x00, 0x00, 0x00, 0x27, 0x00, 0x00, 0x00, 0x73, 0x65, 0x71, 0x75,
  0x65, 0x6e, 0x74, 0x69, 0x61, 0x6c, 0x2f, 0x64, 0x65, 0x6e, 0x73, 0x65,
  0x2f, 0x42, 0x69, 0x61, 0x73, 0x41, 0x64, 0x64, 0x2f, 0x52, 0x65, 0x61,
  0x64, 0x56, 0x61, 0x72, 0x69, 0x61, 0x62, 0x6c, 0x65, 0x4f, 0x70, 0x00,
  0x04, 0x00, 0x06, 0x00, 0x04, 0x00, 0x00, 0x00, 0x00, 0x00, 0x0e, 0x00,
  0x14, 0x00, 0x04, 0x00, 0x00, 0x00, 0x08, 0x00, 0x0c, 0x00, 0x10, 0x00,
  0x0e, 0x00, 0x00, 0x00, 0x10, 0x00, 0x00, 0x00, 0x01, 0x00, 0x00, 0x00,
  0x1c, 0x00, 0x00, 0x00, 0x2c, 0x00, 0x00, 0x00, 0x04, 0x00, 0x00, 0x00,
  0x01, 0x00, 0x00, 0x00, 0x40, 0x00, 0x00, 0x00, 0x03, 0x00, 0x00, 0x00,
  0x01, 0x00, 0x00, 0x00, 0x0c, 0x00, 0x00, 0x00, 0x63, 0x6f, 0x6e, 0x76,
  0x32, 0x64, 0x5f, 0x69, 0x6e, 0x70, 0x75, 0x74, 0x00, 0x00, 0x00, 0x00,
  0xfc, 0xff, 0xff, 0xff, 0x04, 0x00, 0x04, 0x00, 0x04, 0x00, 0x00, 0x00  
  

};


unsigned int model_tflite_len = 12384 ;// Fill the int in `src/model.cc` here
